<pad>	0
<s>	0
</s>	0
<unk>	0
▁t	-0
▁a	-1
▁n	-2
he	-3
in	-4
an	-5
▁s	-6
▁m	-7
▁o	-8
▁w	-9
re	-10
▁d	-11
▁b	-12
ar	-13
▁the	-14
▁k	-15
at	-16
▁i	-17
▁y	-18
er	-19
on	-20
▁c	-21
▁na	-22
▁h	-23
▁f	-24
en	-25
▁g	-26
▁an	-27
es	-28
or	-29
ou	-30
▁l	-31
▁p	-32
al	-33
as	-34
▁da	-35
it	-36
ed	-37
▁to	-38
is	-39
▁of	-40
ing	-41
un	-42
ke	-43
▁th	-44
▁and	-45
am	-46
▁in	-47
▁A	-48
▁ọ	-49
▁e	-50
il	-51
wa	-52
om	-53
▁ya	-54
ka	-55
us	-56
ai	-57
ur	-58
▁I	-59
le	-60
ic	-61
gb	-62
ay	-63
ad	-64
▁M	-65
ọ́	-66
ut	-67
▁S	-68
ere	-69
▁r	-70
ir	-71
ot	-72
el	-73
gh	-74
▁on	-75
▁N	-76
ion	-77
ẹ̀	-78
▁à	-79
▁is	-80
et	-81
ac	-82
▁that	-83
▁ha	-84
ve	-85
ẹ́	-86
ya	-87
im	-88
▁you	-89
ent	-90
▁ma	-91
▁B	-92
▁J	-93
▁j	-94
ow	-95
▁be	-96
id	-97
▁he	-98
▁C	-99
▁z	-100
ma	-101
os	-102
▁re	-103
ab	-104
▁sh	-105
od	-106
▁T	-107
ch	-108
▁G	-109
▁ka	-110
▁al	-111
▁ì	-112
ọ̀	-113
ara	-114
ta	-115
▁for	-116
ver	-117
ọn	-118
ol	-119
kw	-120
▁ta	-121
▁su	-122
▁nd	-123
▁ba	-124
▁nke	-125
▁ní	-126
▁O	-127
▁L	-128
▁wh	-129
ti	-130
ye	-131
ra	-132
▁K	-133
▁ne	-134
▁bụ	-135
and	-136
▁ku	-137
her	-138
ith	-139
ul	-140
ah	-141
ce	-142
ik	-143
▁ab	-144
▁D	-145
ill	-146
▁1	-147
▁H	-148
nd	-149
ly	-150
▁2	-151
ga	-152
▁st	-153
▁it	-154
em	-155
ún	-156
ri	-157
▁as	-158
wọn	-159
um	-160
ld	-161
▁was	-162
The	-163
▁(	-164
▁with	-165
▁E	-166
▁we	-167
op	-168
ter	-169
rụ	-170
ana	-171
▁P	-172
▁W	-173
ation	-174
ec	-175
▁ga	-176
▁not	-177
▁"	-178
▁tí	-179
▁Y	-180
▁do	-181
st	-182
ak	-183
hi	-184
ge	-185
▁ndị	-186
▁u	-187
▁pr	-188
▁ṣ	-189
▁un	-190
▁ch	-191
▁ị	-192
▁yi	-193
ia	-194
▁ihe	-195
th	-196
▁ụ	-197
we	-198
▁are	-199
▁wan	-200
ji	-201
▁me	-202
▁F	-203
▁R	-204
▁ni	-205
ts	-206
all	-207
ers	-208
kp	-209
▁or	-210
▁gb	-211
ore	-212
▁U	-213
▁his	-214
ess	-215
▁àwọn	-216
ci	-217
uk	-218
▁ce	-219
ine	-220
▁have	-221
▁ń	-222
ig	-223
▁at	-224
ie	-225
▁any	-226
to	-227
▁lá	-228
▁wa	-229
ans	-230
àn	-231
▁Ch	-232
ub	-233
▁sa	-234
ata	-235
ok	-236
ọ́n	-237
▁fr	-238
se	-239
▁com	-240
ud	-241
▁li	-242
▁dị	-243
▁tó	-244
▁ah	-245
ght	-246
▁con	-247
▁go	-248
▁will	-249
▁Al	-250
▁nw	-251
▁ot	-252
▁sai	-253
ov	-254
▁they	-255
▁Ọ	-256
▁mu	-257
▁us	-258
ghị	-259
▁from	-260
wu	-261
bi	-262
▁all	-263
ate	-264
lẹ̀	-265
uru	-266
▁this	-267
be	-268
kwu	-269
ould	-270
▁-	-271
ist	-272
me	-273
hen	-274
▁lo	-275
ama	-276
▁shi	-277
▁ò	-278
est	-279
▁ó	-280
ile	-281
fi	-282
▁wor	-283
▁am	-284
ite	-285
res	-286
ang	-287
any	-288
pp	-289
▁kuma	-290
▁se	-291
▁your	-292
una	-293
▁20	-294
▁fi	-295
▁God	-296
ari	-297
▁ƙ	-298
..	-299
▁him	-300
kan	-301
iri	-302
▁them	-303
▁so	-304
▁sí	-305
▁di	-306
▁ar	-307
."	-308
▁ti	-309
zọ	-310
▁has	-311
na	-312
▁And	-313
ikin	-314
▁de	-315
▁by	-316
▁can	-317
rí	-318
nan	-319
▁en	-320
la	-321
one	-322
▁one	-323
ìí	-324
ba	-325
sa	-326
▁ṣe	-327
lé	-328
ment	-329
che	-330
ity	-331
▁v	-332
áà	-333
ap	-334
ust	-335
zi	-336
ren	-337
ard	-338
fe	-339
ob	-340
▁wọ́n	-341
▁anyị	-342
ime	-343
▁pe	-344
out	-345
▁za	-346
ki	-347
ùn	-348
ome	-349
▁kw	-350
▁said	-351
ani	-352
uwa	-353
▁ex	-354
our	-355
▁who	-356
▁their	-357
ìn	-358
ry	-359
ame	-360
art	-361
▁pé	-362
▁kan	-363
▁sp	-364
▁my	-365
▁Na	-366
▁ad	-367
▁le	-368
▁onye	-369
ct	-370
▁kn	-371
ack	-372
▁Is	-373
ag	-374
▁è	-375
so	-376
ụrụ	-377
ong	-378
▁but	-379
ff	-380
ich	-381
ep	-382
▁ko	-383
ell	-384
qu	-385
▁cikin	-386
▁'	-387
▁ike	-388
▁nwere	-389
▁ẹ	-390
▁All	-391
ọr	-392
ven	-393
ace	-394
▁ló	-395
▁were	-396
▁up	-397
ice	-398
kwa	-399
ort	-400
jú	-401
rin	-402
▁mgb	-403
ure	-404
▁br	-405
▁si	-406
da	-407
▁ahụ	-408
ịa	-409
ide	-410
ople	-411
▁láti	-412
▁À	-413
▁pl	-414
wo	-415
▁ọ̀	-416
ach	-417
▁our	-418
▁ts	-419
ni	-420
▁fún	-421
▁3	-422
nt	-423
▁náà	-424
▁201	-425
▁know	-426
▁Allah	-427
▁mm	-428
▁had	-429
ord	-430
tụ	-431
▁don	-432
▁mut	-433
▁.	-434
▁people	-435
▁àti	-436
▁out	-437
ast	-438
ost	-439
og	-440
▁tr	-441
jọ	-442
very	-443
other	-444
▁ke	-445
▁ye	-446
▁maka	-447
iy	-448
▁suka	-449
▁ɗ	-450
ant	-451
anda	-452
ala	-453
▁daga	-454
▁unto	-455
▁gị	-456
aya	-457
ue	-458
ind	-459
▁she	-460
ance	-461
▁ẹ̀	-462
end	-463
▁bu	-464
ars	-465
▁bá	-466
gbà	-467
eh	-468
▁when	-469
ous	-470
asa	-471
▁there	-472
▁Isra	-473
00	-474
▁say	-475
ies	-476
ect	-477
gwu	-478
oro	-479
ive	-480
kọ	-481
ib	-482
ọrọ	-483
here	-484
▁aka	-485
▁which	-486
▁mai	-487
ew	-488
▁her	-489
de	-490
▁Ya	-491
are	-492
ish	-493
ild	-494
gbo	-495
▁about	-496
ro	-497
Th	-498
ose	-499
ally	-500
ina	-501
▁Z	-502
iv	-503
▁af	-504
▁what	-505
uh	-506
▁jẹ́	-507
pụ	-508
▁má	-509
▁son	-510
▁Ì	-511
▁sì	-512
▁wọn	-513
ight	-514
lọ	-515
pt	-516
▁kam	-517
OR	-518
aus	-519
▁mat	-520
▁iya	-521
aw	-522
reat	-523
nú	-524
▁ac	-525
ṣẹ́	-526
ane	-527
fin	-528
▁ọrụ	-529
He	-530
▁zai	-531
ku	-532
▁aga	-533
▁kí	-534
▁bec	-535
oc	-536
▁fa	-537
▁An	-538
▁nan	-539
zu	-540
iji	-541
▁Am	-542
ali	-543
▁man	-544
.1	-545
▁Ẹ	-546
▁kar	-547
dè	-548
ber	-549
▁The	-550
ings	-551
▁did	-552
ound	-553
sel	-554
▁Ub	-555
▁wannan	-556
chị	-557
ORD	-558
▁LORD	-559
▁cewa	-560
ze	-561
cin	-562
man	-563
▁mgbe	-564
▁abin	-565
lú	-566
▁Jeh	-567
eri	-568
jọ́	-569
▁wani	-570
ọd	-571
ihi	-572
ions	-573
▁sun	-574
▁kas	-575
▁other	-576
kụ	-577
án	-578
▁bí	-579
▁if	-580
▁Ubang	-581
▁like	-582
ne	-583
▁san	-584
ough	-585
▁yana	-586
aba	-587
iya	-588
uw	-589
▁St	-590
ree	-591
fore	-592
ary	-593
ause	-594
▁would	-595
▁ọzọ	-596
▁day	-597
▁more	-598
ug	-599
We	-600
▁duk	-601
▁Israel	-602
▁yìí	-603
▁Ubangiji	-604
ath	-605
ark	-606
▁ndi	-607
ineke	-608
ness	-609
It	-610
mp	-611
▁4	-612
▁shall	-613
▁off	-614
up	-615
rị	-616
▁Chineke	-617
ha	-618
yi	-619
▁been	-620
pa	-621
dị	-622
der	-623
▁wà	-624
arin	-625
bụ	-626
ín	-627
Wh	-628
▁site	-629
gw	-630
▁máa	-631
ood	-632
▁mere	-633
▁work	-634
▁“	-635
li	-636
▁Chr	-637
▁no	-638
▁dis	-639
rọ̀	-640
▁also	-641
▁nile	-642
les	-643
kwụ	-644
hu	-645
▁res	-646
ass	-647
▁Jehov	-648
wọ́	-649
▁does	-650
ada	-651
▁kwa	-652
▁Ab	-653
▁haka	-654
▁ob	-655
▁agb	-656
iki	-657
itt	-658
▁time	-659
▁ọn	-660
▁Da	-661
▁otu	-662
je	-663
ase	-664
▁bl	-665
▁sam	-666
esus	-667
▁te	-668
ather	-669
yé	-670
▁over	-671
▁On	-672
eme	-673
ink	-674
lù	-675
ress	-676
▁into	-677
▁mkp	-678
anin	-679
▁want	-680
aka	-681
▁comp	-682
day	-683
own	-684
▁exp	-685
▁ji	-686
way	-687
▁ebe	-688
omin	-689
▁child	-690
mụ	-691
ade	-692
▁rẹ̀	-693
▁nínú	-694
▁should	-695
amb	-696
▁comm	-697
▁again	-698
▁5	-699
ash	-700
ated	-701
▁kò	-702
oh	-703
▁than	-704
▁Nig	-705
ick	-706
eth	-707
▁some	-708
▁ìd	-709
▁see	-710
ll	-711
ations	-712
▁cl	-713
▁gr	-714
yìn	-715
ves	-716
▁sọ	-717
ount	-718
asu	-719
▁He	-720
old	-721
ence	-722
omm	-723
In	-724
""	-725
gbu	-726
▁wá	-727
kọ̀	-728
ọọ	-729
ft	-730
▁because	-731
▁Jesus	-732
nu	-733
for	-734
▁yan	-735
za	-736
▁way	-737
red	-738
▁la	-739
▁orí	-740
yar	-741
▁every	-742
able	-743
uta	-744
ful	-745
▁loka	-746
▁wanda	-747
jì	-748
▁Sh	-749
▁anya	-750
▁pers	-751
yàn	-752
▁fir	-753
▁Ba	-754
▁yin	-755
go	-756
▁mus	-757
▁V	-758
▁cont	-759
amm	-760
▁iche	-761
ered	-762
▁id	-763
ila	-764
▁zuwa	-765
act	-766
yere	-767
▁lọ́	-768
▁kuwa	-769
▁ilé	-770
▁need	-771
fa	-772
▁ará	-773
▁har	-774
fà	-775
▁king	-776
▁pre	-777
gba	-778
▁nwa	-779
▁Ad	-780
▁Ina	-781
ens	-782
ru	-783
▁Ma	-784
▁how	-785
hun	-786
▁qu	-787
ins	-788
lu	-789
▁fe	-790
oy	-791
▁good	-792
You	-793
ịrị	-794
20	-795
▁tare	-796
age	-797
ansa	-798
ian	-799
ook	-800
ouse	-801
urn	-802
ric	-803
This	-804
uka	-805
▁In	-806
annan	-807
mu	-808
rò	-809
▁dá	-810
▁min	-811
▁wat	-812
▁think	-813
iti	-814
▁isi	-815
...	-816
ọdụ	-817
tà	-818
▁19	-819
ise	-820
ọ̀n	-821
▁ci	-822
eria	-823
▁zama	-824
ụọ	-825
igh	-826
▁tun	-827
pe	-828
▁person	-829
▁get	-830
vern	-831
▁before	-832
tara	-833
▁new	-834
adụ	-835
▁just	-836
▁Christ	-837
▁bay	-838
self	-839
▁bụrụ	-840
cha	-841
▁6	-842
▁Ar	-843
▁mag	-844
mọ	-845
▁han	-846
▁acc	-847
▁ow	-848
ory	-849
And	-850
▁ng	-851
▁app	-852
▁yake	-853
▁yad	-854
vers	-855
gbá	-856
uc	-857
).	-858
▁only	-859
▁thr	-860
▁mmadụ	-861
kwọ	-862
▁may	-863
▁even	-864
▁kamar	-865
▁wur	-866
▁came	-867
▁iji	-868
▁hand	-869
▁onwe	-870
erv	-871
▁yadda	-872
ical	-873
▁bel	-874
▁lórí	-875
▁hel	-876
▁thou	-877
▁ezi	-878
kar	-879
tern	-880
▁inc	-881
▁mẹ́	-882
▁mi	-883
▁imp	-884
abb	-885
oll	-886
pụta	-887
kùn	-888
ult	-889
▁take	-890
▁rí	-891
▁domin	-892
▁okwu	-893
▁brother	-894
▁many	-895
▁lọ	-896
▁ahu	-897
ami	-898
yí	-899
anta	-900
▁help	-901
▁ụlọ	-902
dún	-903
▁suna	-904
▁Ní	-905
▁life	-906
mi	-907
▁make	-908
.2	-909
▁í	-910
zụ	-911
àb	-912
èdè	-913
▁niile	-914
lẹ́	-915
isi	-916
ning	-917
▁call	-918
ors	-919
anyere	-920
oss	-921
▁after	-922
ident	-923
▁lè	-924
ló	-925
▁rep	-926
▁pa	-927
▁amma	-928
king	-929
ons	-930
▁part	-931
▁mar	-932
▁come	-933
▁per	-934
▁house	-935
▁mma	-936
▁made	-937
▁As	-938
▁these	-939
ume	-940
▁bú	-941
▁ala	-942
▁gas	-943
ko	-944
ates	-945
yan	-946
▁kp	-947
tụtụ	-948
amp	-949
▁under	-950
ond	-951
ely	-952
ible	-953
▁now	-954
bọ	-955
▁Yes	-956
ition	-957
),	-958
kpe	-959
sì	-960
▁first	-961
▁ime	-962
▁Sa	-963
ames	-964
mọ̀	-965
atar	-966
▁two	-967
▁sab	-968
tò	-969
▁Th	-970
▁land	-971
int	-972
▁world	-973
▁word	-974
ters	-975
vid	-976
▁Le	-977
▁yó	-978
lọ́	-979
▁orílẹ̀	-980
▁nn	-981
ited	-982
▁sin	-983
▁ra	-984
▁Yesu	-985
▁egwu	-986
▁bụla	-987
▁ag	-988
▁kya	-989
jir	-990
ng	-991
▁tafi	-992
ities	-993
▁banyere	-994
ks	-995
▁against	-996
If	-997
▁rec	-998
▁children	-999
▁ohun	-1000
▁–	-1001
▁wr	-1002
▁things	-1003
chi	-1004
▁otú	-1005
▁ìw	-1006
of	-1007
▁Sai	-1008
ents	-1009
ial	-1010
▁bet	-1011
ction	-1012
war	-1013
▁kó	-1014
ghi	-1015
▁where	-1016
kin	-1017
▁look	-1018
eta	-1019
kwụkwọ	-1020
▁game	-1021
àá	-1022
▁ìp	-1023
sí	-1024
form	-1025
isti	-1026
▁ndụ	-1027
▁bi	-1028
▁bai	-1029
kọ́	-1030
▁kwuru	-1031
▁New	-1032
▁zan	-1033
odo	-1034
tain	-1035
▁Nigeria	-1036
▁7	-1037
▁mú	-1038
ira	-1039
▁could	-1040
uda	-1041
▁Ka	-1042
oda	-1043
▁gu	-1044
▁Har	-1045
▁wom	-1046
ammad	-1047
▁those	-1048
yo	-1049
▁count	-1050
▁Af	-1051
▁obi	-1052
▁10	-1053
vel	-1054
ign	-1055
▁men	-1056
▁des	-1057
▁play	-1058
ational	-1059
▁biy	-1060
▁years	-1061
ily	-1062
▁through	-1063
hó	-1064
▁mo	-1065
uhammad	-1066
pọ̀	-1067
▁add	-1068
--	-1069
▁mutum	-1070
aa	-1071
asị	-1072
ẹn	-1073
▁lé	-1074
oe	-1075
bu	-1076
▁8	-1077
ogbo	-1078
lic	-1079
ràn	-1080
arki	-1081
sọ	-1082
▁far	-1083
▁kai	-1084
kùnrin	-1085
oth	-1086
te	-1087
▁á	-1088
▁Jehova	-1089
They	-1090
ẹ̀lú	-1091
▁great	-1092
What	-1093
ving	-1094
▁waɗ	-1095
oke	-1096
gi	-1097
▁lokacin	-1098
ụta	-1099
zie	-1100
orí	-1101
▁Onye	-1102
▁cr	-1103
▁lẹ́	-1104
▁Àwọn	-1105
eor	-1106
kò	-1107
▁gi	-1108
sẹ̀	-1109
ayi	-1110
▁right	-1111
▁Bí	-1112
jọba	-1113
She	-1114
▁hakan	-1115
▁gid	-1116
▁very	-1117
▁9	-1118
▁Lord	-1119
▁mana	-1120
ower	-1121
gun	-1122
èhó	-1123
lex	-1124
èhófà	-1125
▁ear	-1126
ɗa	-1127
aye	-1128
ged	-1129
▁ro	-1130
▁att	-1131
kè	-1132
ṣe	-1133
anya	-1134
arị	-1135
iss	-1136
▁Jèhófà	-1137
▁mme	-1138
▁op	-1139
▁went	-1140
▁love	-1141
ked	-1142
▁tún	-1143
ebe	-1144
okwu	-1145
▁pẹ̀lú	-1146
▁masu	-1147
itness	-1148
als	-1149
gin	-1150
rùn	-1151
ef	-1152
But	-1153
asi	-1154
▁down	-1155
lò	-1156
▁oge	-1157
▁alá	-1158
já	-1159
▁brothers	-1160
▁ọtụtụ	-1161
▁ran	-1162
▁sc	-1163
▁own	-1164
ool	-1165
wan	-1166
jà	-1167
▁yóò	-1168
kwai	-1169
amu	-1170
▁supp	-1171
uss	-1172
▁Br	-1173
line	-1174
▁govern	-1175
▁pres	-1176
▁wurin	-1177
▁kì	-1178
▁sec	-1179
get	-1180
▁belie	-1181
.”	-1182
su	-1183
▁nọ	-1184
▁2019	-1185
▁ngwa	-1186
di	-1187
ansu	-1188
▁Jer	-1189
▁nt	-1190
How	-1191
ita	-1192
ope	-1193
▁ɗa	-1194
▁cons	-1195
▁gbé	-1196
ịghị	-1197
▁dukan	-1198
▁ọdún	-1199
▁akụ	-1200
hip	-1201
▁gir	-1202
do	-1203
▁ban	-1204
▁then	-1205
▁gbogbo	-1206
▁Mar	-1207
▁diff	-1208
▁ụmụ	-1209
là	-1210
ili	-1211
ura	-1212
▁most	-1213
Ch	-1214
▁afọ	-1215
▁ele	-1216
ces	-1217
oun	-1218
ẹ̀r	-1219
▁um	-1220
▁dec	-1221
▁let	-1222
ict	-1223
▁fl	-1224
▁ọmọ	-1225
hed	-1226
ké	-1227
osi	-1228
▁Re	-1229
▁fam	-1230
lie	-1231
▁its	-1232
ua	-1233
▁str	-1234
:1	-1235
uku	-1236
▁mb	-1237
▁mé	-1238
▁spe	-1239
▁Ó	-1240
fọdụ	-1241
There	-1242
▁Sp	-1243
ody	-1244
vent	-1245
gha	-1246
uwan	-1247
▁Un	-1248
▁Jehovah	-1249
▁going	-1250
wò	-1251
▁unu	-1252
▁ìṣ	-1253
▁tal	-1254
▁being	-1255
acob	-1256
tí	-1257
uth	-1258
▁well	-1259
▁mutane	-1260
▁ru	-1261
ire	-1262
▁sm	-1263
▁back	-1264
eb	-1265
usa	-1266
▁serv	-1267
▁ina	-1268
▁Os	-1269
irit	-1270
gbe	-1271
asar	-1272
▁iṣẹ́	-1273
land	-1274
▁Ph	-1275
▁idan	-1276
▁bir	-1277
íì	-1278
▁rem	-1279
eorge	-1280
▁never	-1281
outh	-1282
ute	-1283
▁Me	-1284
wụ	-1285
?"	-1286
lá	-1287
▁Ị	-1288
ike	-1289
▁wee	-1290
arn	-1291
aban	-1292
▁didn	-1293
nì	-1294
▁sha	-1295
▁Ọ̀	-1296
▁trans	-1297
▁Ta	-1298
▁mba	-1299
jụ	-1300
ale	-1301
▁read	-1302
und	-1303
enwe	-1304
kàn	-1305
▁mọ́	-1306
.3	-1307
▁iwu	-1308
ph	-1309
▁nk	-1310
ty	-1311
ved	-1312
▁saying	-1313
▁here	-1314
▁co	-1315
▁told	-1316
▁zo	-1317
▁Muhammad	-1318
▁gba	-1319
▁tra	-1320
▁eme	-1321
ating	-1322
▁mkpa	-1323
cc	-1324
▁je	-1325
alth	-1326
enye	-1327
▁three	-1328
▁int	-1329
▁om	-1330
▁set	-1331
imes	-1332
▁pol	-1333
iam	-1334
wai	-1335
▁same	-1336
▁bre	-1337
▁use	-1338
▁pray	-1339
▁Wannan	-1340
▁De	-1341
▁much	-1342
kiya	-1343
▁put	-1344
mú	-1345
▁Ha	-1346
▁tri	-1347
▁tell	-1348
kó	-1349
▁Ṣ	-1350
atụ	-1351
oses	-1352
▁Ndị	-1353
▁ego	-1354
▁yawa	-1355
▁law	-1356
▁gan	-1357
eti	-1358
▁12	-1359
ahụ	-1360
▁masa	-1361
ought	-1362
yà	-1363
▁upon	-1364
▁em	-1365
▁end	-1366
inye	-1367
hụ	-1368
att	-1369
▁ọg	-1370
gbè	-1371
▁Go	-1372
▁jin	-1373
rìí	-1374
ife	-1375
orn	-1376
▁kasance	-1377
dom	-1378
▁gl	-1379
ourt	-1380
▁give	-1381
▁nípa	-1382
bọchị	-1383
▁ìdí	-1384
▁ụzọ	-1385
ashi	-1386
ones	-1387
ms	-1388
rè	-1389
mọ́	-1390
ǹkan	-1391
▁ọnụ	-1392
201	-1393
▁dun	-1394
▁father	-1395
med	-1396
ret	-1397
▁car	-1398
air	-1399
▁Nke	-1400
▁15	-1401
▁For	-1402
thing	-1403
▁ozi	-1404
▁happ	-1405
▁name	-1406
000	-1407
▁prob	-1408
▁akwụkwọ	-1409
▁pri	-1410
▁èdè	-1411
liver	-1412
▁ph	-1413
▁year	-1414
oma	-1415
ward	-1416
▁mon	-1417
▁long	-1418
▁abụọ	-1419
ush	-1420
ohn	-1421
gbé	-1422
ayin	-1423
▁place	-1424
ull	-1425
▁prov	-1426
jí	-1427
▁11	-1428
car	-1429
▁rel	-1430
▁saboda	-1431
illiam	-1432
▁ed	-1433
▁prop	-1434
uhari	-1435
ja	-1436
▁chọrọ	-1437
tì	-1438
▁ass	-1439
▁reg	-1440
▁ri	-1441
▁ind	-1442
ious	-1443
▁Amma	-1444
tọ́	-1445
ines	-1446
riend	-1447
aid	-1448
eche	-1449
regwu	-1450
yị	-1451
iew	-1452
▁suke	-1453
ced	-1454
▁tak	-1455
ased	-1456
olog	-1457
ember	-1458
va	-1459
▁fara	-1460
wá	-1461
▁kọ	-1462
▁ara	-1463
▁still	-1464
ove	-1465
ever	-1466
▁kamata	-1467
kà	-1468
▁kill	-1469
▁Ẹlẹ́	-1470
▁country	-1471
ọta	-1472
lease	-1473
▁ká	-1474
▁ụfọdụ	-1475
lud	-1476
▁yanzu	-1477
▁kyau	-1478
fic	-1479
▁ray	-1480
arlie	-1481
▁pass	-1482
èyàn	-1483
▁ikpe	-1484
anen	-1485
▁tá	-1486
itnesses	-1487
▁Afric	-1488
▁magana	-1489
▁Tr	-1490
▁days	-1491
▁find	-1492
elu	-1493
iche	-1494
uwar	-1495
anyị	-1496
▁iri	-1497
▁kwes	-1498
▁hal	-1499
▁po	-1500
▁sent	-1501
oup	-1502
iyar	-1503
▁home	-1504
▁David	-1505
gbẹ́	-1506
▁ɗan	-1507
▁ent	-1508
▁thy	-1509
▁obodo	-1510
▁16	-1511
▁nso	-1512
▁Ẹlẹ́rìí	-1513
▁government	-1514
▁es	-1515
▁Comm	-1516
ites	-1517
ima	-1518
▁aiki	-1519
xt	-1520
led	-1521
usal	-1522
▁Naị	-1523
kwe	-1524
ublic	-1525
▁chaa	-1526
▁sos	-1527
▁ìjọba	-1528
▁gbà	-1529
ung	-1530
▁saur	-1531
▁Buhari	-1532
▁che	-1533
▁2018	-1534
▁Ot	-1535
ọ́ọ̀	-1536
▁won	-1537
▁thee	-1538
asin	-1539
▁ak	-1540
▁His	-1541
▁ste	-1542
▁bar	-1543
ote	-1544
uring	-1545
▁called	-1546
▁14	-1547
gide	-1548
ollow	-1549
aima	-1550
▁contin	-1551
usalem	-1552
▁Jerusalem	-1553
▁13	-1554
▁Ẹ̀	-1555
anci	-1556
▁away	-1557
ọ̀rọ̀	-1558
When	-1559
bé	-1560
▁eff	-1561
▁resp	-1562
▁says	-1563
cy	-1564
ined	-1565
oney	-1566
▁som	-1567
ene	-1568
ommy	-1569
▁might	-1570
▁ama	-1571
ekwu	-1572
▁nnọọ	-1573
ran	-1574
»‹	-1575
gbọ́n	-1576
▁conf	-1577
▁sosai	-1578
▁Naịjir	-1579
▁fẹ́	-1580
oot	-1581
▁ƙar	-1582
▁eb	-1583
▁elu	-1584
▁stud	-1585
ati	-1586
ting	-1587
▁akp	-1588
▁eze	-1589
▁mats	-1590
▁Wh	-1591
▁speak	-1592
▁musu	-1593
▁Moses	-1594
lì	-1595
▁must	-1596
ulo	-1597
▁biyu	-1598
▁show	-1599
mer	-1600
ashin	-1601
▁really	-1602
▁abu	-1603
rú	-1604
▁nē	-1605
▁hear	-1606
▁shir	-1607
▁Ò	-1608
▁Jos	-1609
▁keep	-1610
osp	-1611
▁ciki	-1612
So	-1613
ịta	-1614
▁Ihe	-1615
On	-1616
ments	-1617
▁Witnesses	-1618
ner	-1619
▁18	-1620
jin	-1621
▁took	-1622
▁Gu	-1623
▁È	-1624
▁mak	-1625
▁lára	-1626
▁such	-1627
▁Igbo	-1628
▁nǹkan	-1629
▁follow	-1630
▁differe	-1631
For	-1632
ised	-1633
▁among	-1634
bí	-1635
rọ	-1636
pá	-1637
▁Ku	-1638
▁John	-1639
▁heart	-1640
▁Mai	-1641
▁ins	-1642
▁duniya	-1643
ener	-1644
▁Russ	-1645
▁col	-1646
ral	-1647
jen	-1648
▁bur	-1649
▁já	-1650
,000	-1651
▁sur	-1652
▁lọ́wọ́	-1653
▁faɗa	-1654
▁turn	-1655
▁state	-1656
▁friend	-1657
gy	-1658
▁ọh	-1659
▁med	-1660
its	-1661
read	-1662
ual	-1663
ẹ́ẹ̀	-1664
▁mara	-1665
▁egwuregwu	-1666
ìnrin	-1667
▁kawai	-1668
▁Anyị	-1669
pé	-1670
zo	-1671
abu	-1672
▁It	-1673
▁Bible	-1674
▁Adam	-1675
▁city	-1676
▁Ụ	-1677
▁ụbọchị	-1678
▁eat	-1679
▁without	-1680
etiti	-1681
stand	-1682
▁èèyàn	-1683
▁Naịjirịa	-1684
▁Id	-1685
▁inst	-1686
ected	-1687
akp	-1688
▁kú	-1689
▁hea	-1690
▁old	-1691
▁found	-1692
jo	-1693
sw	-1694
úr	-1695
▁ìf	-1696
atan	-1697
▁But	-1698
ling	-1699
tiv	-1700
▁et	-1701
ways	-1702
▁Jacob	-1703
▁Mo	-1704
ement	-1705
▁loc	-1706
▁hany	-1707
àr	-1708
▁another	-1709
hes	-1710
iṣẹ́	-1711
▁kun	-1712
▁start	-1713
▁includ	-1714
het	-1715
orts	-1716
▁ẹni	-1717
selves	-1718
▁ọchị	-1719
▁ìgbà	-1720
-1	-1721
▁Alex	-1722
▁last	-1723
▁ọ̀rọ̀	-1724
▁lokaci	-1725
ọ́ọ̀lù	-1726
▁State	-1727
As	-1728
▁im	-1729
▁del	-1730
▁ọbụ	-1731
.'	-1732
uba	-1733
ríà	-1734
▁waɗanda	-1735
ju	-1736
rib	-1737
cer	-1738
▁Jud	-1739
▁Nà	-1740
▁Shin	-1741
yìí	-1742
▁17	-1743
▁nā	-1744
▁why	-1745
▁gaba	-1746
ee	-1747
arụ	-1748
▁gare	-1749
ṣù	-1750
achi	-1751
▁ikọ̀	-1752
▁while	-1753
▁George	-1754
▁(201	-1755
▁Yah	-1756
gbọ	-1757
▁taima	-1758
gwụ	-1759
were	-1760
ele	-1761
▁èyí	-1762
▁ev	-1763
▁ƙa	-1764
▁vis	-1765
▁hath	-1766
▁(1	-1767
▁ìlú	-1768
alm	-1769
ezie	-1770
▁cle	-1771
▁United	-1772
▁got	-1773
▁James	-1774
àbí	-1775
▁aff	-1776
▁Amer	-1777
▁others	-1778
amar	-1779
▁irin	-1780
▁money	-1781
zere	-1782
▁sis	-1783
men	-1784
▁ki	-1785
ụlọ	-1786
▁dog	-1787
zed	-1788
▁high	-1789
▁open	-1790
▁Nigeri	-1791
Do	-1792
let	-1793
▁er	-1794
▁ƙasar	-1795
bs	-1796
▁par	-1797
ron	-1798
lish	-1799
▁book	-1800
▁head	-1801
▁live	-1802
▁ɗaya	-1803
▁death	-1804
▁Him	-1805
emb	-1806
ried	-1807
áb	-1808
ola	-1809
▁mun	-1810
▁nwoke	-1811
One	-1812
That	-1813
abi	-1814
nin	-1815
íà	-1816
▁Sun	-1817
ething	-1818
eter	-1819
▁words	-1820
angu	-1821
▁ètò	-1822
▁kama	-1823
bẹ̀	-1824
alite	-1825
▁méjì	-1826
▁ẹjọ́	-1827
aki	-1828
▁dr	-1829
▁ju	-1830
bara	-1831
▁thing	-1832
▁ref	-1833
▁saw	-1834
▁faith	-1835
unub	-1836
▁ganin	-1837
agb	-1838
▁nwe	-1839
▁bayan	-1840
▁month	-1841
ants	-1842
▁care	-1843
tọ	-1844
▁nye	-1845
ica	-1846
▁Mon	-1847
▁done	-1848
wọ̀n	-1849
▁lead	-1850
adi	-1851
ake	-1852
▁doing	-1853
▁òun	-1854
aga	-1855
tọ̀	-1856
▁ọhụrụ	-1857
arka	-1858
▁inv	-1859
ys	-1860
▁num	-1861
▁rece	-1862
▁earth	-1863
ṣẹ	-1864
▁always	-1865
isa	-1866
itta	-1867
ives	-1868
▁omume	-1869
▁mutanen	-1870
▁online	-1871
▁answ	-1872
▁proble	-1873
gu	-1874
▁zunub	-1875
alin	-1876
▁woman	-1877
▁Za	-1878
▁cap	-1879
▁os	-1880
An	-1881
unye	-1882
▁too	-1883
▁pụrụ	-1884
ital	-1885
ording	-1886
▁power	-1887
ip	-1888
▁Jack	-1889
▁Pr	-1890
."""	-1891
▁sami	-1892
▁wata	-1893
kú	-1894
amin	-1895
▁used	-1896
gún	-1897
▁kowa	-1898
af	-1899
▁tàbí	-1900
ison	-1901
▁fin	-1902
enn	-1903
ually	-1904
hún	-1905
aron	-1906
▁quest	-1907
▁kwesịrị	-1908
▁mọ	-1909
▁Wor	-1910
▁act	-1911
ɗi	-1912
ices	-1913
▁abub	-1914
▁something	-1915
pl	-1916
▁tabb	-1917
▁William	-1918
iko	-1919
͕e	-1920
resident	-1921
ween	-1922
kpuru	-1923
▁nyere	-1924
ƙa	-1925
▁Sup	-1926
▁sílẹ̀	-1927
▁Jami	-1928
.4	-1929
▁Then	-1930
▁gbọ́	-1931
ular	-1932
ution	-1933
▁atụ	-1934
▁sure	-1935
ple	-1936
ason	-1937
▁wasu	-1938
▁spirit	-1939
▁understand	-1940
ger	-1941
▁gh	-1942
▁sy	-1943
wara	-1944
▁Harry	-1945
ange	-1946
▁ọma	-1947
▁free	-1948
▁command	-1949
ida	-1950
pụtara	-1951
less	-1952
ní	-1953
wó	-1954
▁Ban	-1955
ures	-1956
ear	-1957
yes	-1958
▁wife	-1959
gbì	-1960
ges	-1961
uci	-1962
▁bụghị	-1963
▁feel	-1964
▁kasị	-1965
ats	-1966
ghara	-1967
ither	-1968
dé	-1969
eji	-1970
▁thought	-1971
bá	-1972
urch	-1973
itere	-1974
▁ever	-1975
▁mah	-1976
▁mata	-1977
▁Ts	-1978
▁Man	-1979
ave	-1980
▁oké	-1981
oly	-1982
▁Aust	-1983
hie	-1984
▁wí	-1985
▁ann	-1986
▁Oliver	-1987
ared	-1988
▁Ilé	-1989
yocha	-1990
▁tamb	-1991
▁between	-1992
yè	-1993
ela	-1994
une	-1995
▁best	-1996
▁nígbà	-1997
not	-1998
▁200	-1999
▁Duk	-2000
▁mbụ	-2001
▁ret	-2002
▁gaya	-2003
dá	-2004
▁21	-2005
▁himself	-2006
gan	-2007
ket	-2008
ering	-2009
▁ilẹ̀	-2010
▁lórílẹ̀	-2011
anar	-2012
▁water	-2013
velop	-2014
▁women	-2015
▁bo	-2016
min	-2017
ugh	-2018
▁aha	-2019
▁amf	-2020
nìyàn	-2021
▁char	-2022
▁25	-2023
obi	-2024
anye	-2025
▁family	-2026
lo	-2027
▁dai	-2028
▁rub	-2029
▁usoro	-2030
▁around	-2031
▁support	-2032
lim	-2033
▁fit	-2034
▁hum	-2035
▁doesn	-2036
▁Jul	-2037
▁rest	-2038
▁So	-2039
▁oló	-2040
kara	-2041
▁gave	-2042
▁meet	-2043
▁Kr	-2044
▁Joe	-2045
tive	-2046
▁ọ̀hún	-2047
adu	-2048
▁ọ́	-2049
uce	-2050
uki	-2051
chool	-2052
▁able	-2053
▁build	-2054
▁stand	-2055
ole	-2056
▁Con	-2057
▁gaskiya	-2058
ism	-2059
▁ojú	-2060
amman	-2061
▁believe	-2062
▁Eng	-2063
▁lot	-2064
▁dama	-2065
▁kwere	-2066
▁bus	-2067
▁enwe	-2068
▁tana	-2069
cept	-2070
gharị	-2071
ility	-2072
▁oní	-2073
▁ter	-2074
▁jama	-2075
▁wal	-2076
▁ìdíje	-2077
▁disc	-2078
ụtara	-2079
▁kashe	-2080
My	-2081
lee	-2082
▁Alm	-2083
▁uku	-2084
▁better	-2085
ụn	-2086
▁Ind	-2087
kwara	-2088
▁different	-2089
ƙi	-2090
arar	-2091
▁mother	-2092
▁brought	-2093
mì	-2094
▁ugbu	-2095
▁heard	-2096
fiya	-2097
▁kọ́	-2098
yẹn	-2099
ues	-2100
▁lab	-2101
▁Christi	-2102
▁[	-2103
▁jud	-2104
gosi	-2105
▁Ará	-2106
▁war	-2107
▁Judah	-2108
▁given	-2109
▁hanyar	-2110
▁tunanin	-2111
ock	-2112
▁ṣè	-2113
▁Charlie	-2114
run	-2115
pr	-2116
▁Zan	-2117
ware	-2118
ative	-2119
▁Pa	-2120
▁art	-2121
kon	-2122
oto	-2123
kike	-2124
▁steeti	-2125
▁mí	-2126
anwe	-2127
ince	-2128
▁god	-2129
▁yet	-2130
▁dịka	-2131
▁Oscar	-2132
▁times	-2133
wé	-2134
▁Tren	-2135
▁four	-2136
▁wajen	-2137
ams	-2138
ọrụ	-2139
▁She	-2140
chiche	-2141
▁(2	-2142
▁mọ̀	-2143
▁wad	-2144
Ad	-2145
fu	-2146
ɓa	-2147
▁La	-2148
▁là	-2149
gr	-2150
ball	-2151
▁try	-2152
utar	-2153
▁poss	-2154
▁ọchịchị	-2155
formation	-2156
▁nor	-2157
▁spec	-2158
per	-2159
▁mer	-2160
▁sani	-2161
gbìmọ̀	-2162
▁prod	-2163
▁commun	-2164
▁""	-2165
oved	-2166
▁Idan	-2167
▁Arákùnrin	-2168
nà	-2169
▁atọ	-2170
▁prot	-2171
▁import	-2172
ork	-2173
view	-2174
▁dep	-2175
▁mmiri	-2176
▁bin	-2177
pò	-2178
▁yau	-2179
▁prom	-2180
▁Ko	-2181
▁ibi	-2182
▁asked	-2183
yẹ	-2184
iness	-2185
▁each	-2186
▁today	-2187
ows	-2188
èrè	-2189
▁casin	-2190
▁Gb	-2191
....	-2192
▁muka	-2193
▁nche	-2194
gether	-2195
▁pè	-2196
▁nri	-2197
▁peace	-2198
▁30	-2199
fied	-2200
hing	-2201
▁ukwu	-2202
▁shine	-2203
▁mafi	-2204
weta	-2205
▁umu	-2206
▁Tommy	-2207
▁Em	-2208
▁nj	-2209
ayan	-2210
lect	-2211
▁ole	-2212
▁mur	-2213
▁ènìyàn	-2214
▁shiga	-2215
ona	-2216
▁inter	-2217
▁together	-2218
▁babb	-2219
▁eyes	-2220
▁nuna	-2221
▁ụgbọ	-2222
ero	-2223
rah	-2224
urs	-2225
▁leg	-2226
erest	-2227
ád	-2228
▁Egy	-2229
▁Mr	-2230
▁ser	-2231
▁dest	-2232
▁litt	-2233
▁amfani	-2234
▁Fr	-2235
▁bó	-2236
▁creat	-2237
els	-2238
adịghị	-2239
ck	-2240
akar	-2241
ẹ̀ẹ́	-2242
▁mot	-2243
ẹ̀rẹ̀	-2244
▁heaven	-2245
jò	-2246
▁gā	-2247
ròyìn	-2248
ission	-2249
▁gara	-2250
▁hard	-2251
omes	-2252
▁muku	-2253
▁ìpín	-2254
kù	-2255
ịn	-2256
apan	-2257
cial	-2258
jíríà	-2259
▁gida	-2260
▁met	-2261
▁World	-2262
▁young	-2263
urt	-2264
▁data	-2265
▁Russia	-2266
ten	-2267
▁bẹ́ẹ̀	-2268
▁Africa	-2269
▁during	-2270
▁cond	-2271
ics	-2272
▁sub	-2273
▁rana	-2274
▁test	-2275
bò	-2276
▁To	-2277
▁Car	-2278
▁both	-2279
mí	-2280
▁kuka	-2281
oge	-2282
uhu	-2283
▁buk	-2284
▁return	-2285
rench	-2286
.5	-2287
ube	-2288
▁pà	-2289
▁body	-2290
▁gama	-2291
ention	-2292
anị	-2293
azụ	-2294
the	-2295
▁tw	-2296
bélì	-2297
▁beh	-2298
▁mas	-2299
lis	-2300
til	-2301
iled	-2302
:2	-2303
ihe	-2304
▁dé	-2305
ubu	-2306
ẹ́g	-2307
▁Ni	-2308
ured	-2309
▁sal	-2310
▁Mary	-2311
▁akwai	-2312
▁báyìí	-2313
ps	-2314
bol	-2315
▁ekw	-2316
▁jẹ	-2317
▁lat	-2318
▁Ur	-2319
ches	-2320
akụ	-2321
apụ	-2322
chọ	-2323
▁22	-2324
▁hai	-2325
▁Mgbe	-2326
▁agha	-2327
▁pro	-2328
ept	-2329
kun	-2330
chie	-2331
▁Bíbélì	-2332
ternational	-2333
,"	-2334
kẹ́	-2335
ayya	-2336
ries	-2337
▁dab	-2338
gburu	-2339
▁face	-2340
▁sisters	-2341
ject	-2342
▁ụwa	-2343
▁Yana	-2344
▁pos	-2345
▁hann	-2346
▁kind	-2347
▁black	-2348
▁President	-2349
fy	-2350
▁Q	-2351
ety	-2352
▁Mun	-2353
▁gwa	-2354
▁ẹ̀rọ	-2355
Al	-2356
▁23	-2357
ashe	-2358
hers	-2359
▁dev	-2360
▁zuci	-2361
▁aṣ	-2362
atur	-2363
owane	-2364
▁aikin	-2365
yá	-2366
▁og	-2367
ened	-2368
ision	-2369
▁bring	-2370
agba	-2371
▁fac	-2372
▁hope	-2373
▁sama	-2374
Ya	-2375
asihu	-2376
▁food	-2377
▁learn	-2378
▁cor	-2379
arda	-2380
ists	-2381
arkin	-2382
ano	-2383
▁At	-2384
▁Ah	-2385
oice	-2386
▁health	-2387
▁24	-2388
▁ṣà	-2389
kali	-2390
ọrịta	-2391
▁mb͕e	-2392
▁develop	-2393
ká	-2394
ages	-2395
▁mini	-2396
God	-2397
ann	-2398
▁kawo	-2399
lation	-2400
▁Ol	-2401
▁left	-2402
▁agbáb	-2403
▁0	-2404
far	-2405
upu	-2406
▁sw	-2407
yana	-2408
▁ìwé	-2409
▁ọkụ	-2410
▁muna	-2411
ùgbọ́n	-2412
▁Almasihu	-2413
sàn	-2414
▁Be	-2415
▁rai	-2416
▁àjọ	-2417
▁samu	-2418
▁kansa	-2419
oura	-2420
▁Ben	-2421
ọ́rùn	-2422
▁Japan	-2423
▁Lá	-2424
▁sim	-2425
con	-2426
▁gidan	-2427
▁ikike	-2428
▁nsogbu	-2429
▁few	-2430
▁echiche	-2431
ojú	-2432
tar	-2433
▁Shi	-2434
▁ib	-2435
▁little	-2436
▁Super	-2437
▁samun	-2438
uri	-2439
uthor	-2440
▁news	-2441
▁until	-2442
ịt	-2443
▁nu	-2444
▁ita	-2445
▁yayi	-2446
ụs	-2447
anu	-2448
▁If	-2449
▁ez	-2450
▁ulo	-2451
bìnrin	-2452
▁akụkọ	-2453
ula	-2454
▁En	-2455
arch	-2456
stem	-2457
eder	-2458
rù	-2459
▁adv	-2460
▁list	-2461
▁Govern	-2462
▁win	-2463
▁ìt	-2464
▁kira	-2465
▁group	-2466
ihu	-2467
ude	-2468
▁mis	-2469
iting	-2470
▁South	-2471
torí	-2472
▁night	-2473
▁US	-2474
▁Eur	-2475
▁kasa	-2476
▁wáyé	-2477
aro	-2478
gwọ	-2479
oub	-2480
▁rẹ	-2481
▁King	-2482
▁court	-2483
▁ìpínlẹ̀	-2484
sè	-2485
▁maara	-2486
▁truth	-2487
▁ṣiṣẹ́	-2488
ẹ́gẹ́	-2489
okpuru	-2490
▁jù	-2491
▁ịgba	-2492
▁gener	-2493
▁àt	-2494
▁mam	-2495
▁mor	-2496
▁farin	-2497
kọta	-2498
▁kwu	-2499
▁mess	-2500
mber	-2501
▁five	-2502
▁become	-2503
▁nothing	-2504
jẹ	-2505
eld	-2506
ony	-2507
alị	-2508
row	-2509
▁opp	-2510
ption	-2511
▁ahịa	-2512
▁school	-2513
▁pọ̀	-2514
▁ọjọ́	-2515
▁Egypt	-2516
▁dịghị	-2517
▁ana	-2518
▁dist	-2519
si	-2520
adà	-2521
cle	-2522
▁since	-2523
▁Ne	-2524
▁dan	-2525
▁ap	-2526
ator	-2527
osed	-2528
▁Ger	-2529
▁abụ	-2530
▁gab	-2531
▁nnu	-2532
▁yẹn	-2533
ched	-2534
▁zam	-2535
az	-2536
utu	-2537
▁28	-2538
ects	-2539
▁San	-2540
▁ịhụ	-2541
▁fark	-2542
▁kach	-2543
▁stop	-2544
ọọment	-2545
iver	-2546
▁sons	-2547
fẹ́	-2548
▁Eag	-2549
▁owó	-2550
▁fore	-2551
▁sarki	-2552
achọ	-2553
▁langu	-2554
▁ọ̀pọ̀	-2555
▁adịghị	-2556
▁nwaanyị	-2557
aci	-2558
▁team	-2559
▁iy	-2560
▁ké	-2561
▁next	-2562
▁thir	-2563
tun	-2564
▁dead	-2565
oston	-2566
▁whom	-2567
▁/	-2568
yin	-2569
▁Son	-2570
▁agbábọ́ọ̀lù	-2571
ụzọ	-2572
íìsì	-2573
▁ruo	-2574
▁tem	-2575
bolone	-2576
dà	-2577
▁maza	-2578
▁Boston	-2579
alle	-2580
▁Paul	-2581
▁daya	-2582
▁proc	-2583
▁cannot	-2584
▁important	-2585
gụ	-2586
esi	-2587
▁We	-2588
▁Sab	-2589
▁azụ	-2590
▁cer	-2591
▁uru	-2592
kọ̀ọ́	-2593
ghachi	-2594
▁everything	-2595
àrẹ	-2596
▁run	-2597
▁uwe	-2598
▁dika	-2599
Is	-2600
▁Tó	-2601
ests	-2602
▁alb	-2603
▁fact	-2604
▁tsak	-2605
▁knew	-2606
▁lafiya	-2607
▁wo	-2608
▁Kra	-2609
▁case	-2610
ister	-2611
ards	-2612
▁mal	-2613
▁saith	-2614
▁number	-2615
▁dí	-2616
▁isn	-2617
▁full	-2618
▁seen	-2619
ousand	-2620
▁Nigerian	-2621
▁nì	-2622
▁kom	-2623
▁Mus	-2624
▁ayé	-2625
etụta	-2626
▁sl	-2627
▁tú	-2628
fíìsì	-2629
▁second	-2630
▁Dan	-2631
▁chi	-2632
▁kpọ	-2633
▁nna	-2634
▁rue	-2635
▁obere	-2636
PC	-2637
All	-2638
▁Ji	-2639
anch	-2640
▁fire	-2641
▁inf	-2642
▁akan	-2643
▁vers	-2644
▁experi	-2645
▁continue	-2646
ram	-2647
▁26	-2648
ality	-2649
▁karịa	-2650
▁though	-2651
atin	-2652
▁Lag	-2653
▁ọgwụ	-2654
▁2019,	-2655
▁interest	-2656
reg	-2657
▁enc	-2658
▁kowane	-2659
ases	-2660
▁ake	-2661
▁mee	-2662
▁States	-2663
▁shekar	-2664
era	-2665
ukan	-2666
▁dam	-2667
ately	-2668
kí	-2669
ense	-2670
▁naanị	-2671
ootball	-2672
tó	-2673
eto	-2674
kpọ	-2675
▁nnukwu	-2676
▁Christian	-2677
▁Sol	-2678
▁ask	-2679
▁torí	-2680
▁blood	-2681
▁Te	-2682
reed	-2683
▁information	-2684
anọ	-2685
inea	-2686
▁week	-2687
▁Eagles	-2688
wájú	-2689
asara	-2690
ịtị	-2691
akin	-2692
br	-2693
rịa	-2694
fort	-2695
▁duka	-2696
▁mind	-2697
▁prof	-2698
undred	-2699
▁gud	-2700
▁six	-2701
▁died	-2702
▁requ	-2703
▁stat	-2704
▁zauna	-2705
.9	-2706
lụ	-2707
rá	-2708
ghọ	-2709
▁Don	-2710
▁nime	-2711
▁nwunye	-2712
nce	-2713
▁Gr	-2714
ukun	-2715
▁ext	-2716
▁bayyana	-2717
▁arákùnrin	-2718
rew	-2719
ived	-2720
oint	-2721
▁Musa	-2722
▁lẹ́yìn	-2723
▁shekara	-2724
umm	-2725
▁Dị	-2726
rect	-2727
ẹsẹ̀	-2728
▁hist	-2729
▁rema	-2730
entina	-2731
▁onyeisi	-2732
▁Obi	-2733
Why	-2734
▁ay	-2735
ushe	-2736
▁ide	-2737
illion	-2738
▁bless	-2739
▁fus	-2740
▁ụdị	-2741
▁baya	-2742
▁jáde	-2743
▁siri	-2744
▁zuru	-2745
▁wanted	-2746
.6	-2747
▁ná	-2748
▁bas	-2749
▁music	-2750
▁themselves	-2751
▁hus	-2752
▁mean	-2753
▁plan	-2754
▁side	-2755
iz	-2756
ịnị	-2757
▁hu	-2758
ency	-2759
ariya	-2760
ining	-2761
urity	-2762
▁uche	-2763
▁Ọlọ́	-2764
▁Court	-2765
bo	-2766
ern	-2767
▁Bab	-2768
▁sau	-2769
ready	-2770
▁according	-2771
▁mid	-2772
▁prog	-2773
▁tashi	-2774
▁hundred	-2775
aru	-2776
rín	-2777
band	-2778
▁mul	-2779
▁mil	-2780
▁cika	-2781
▁pati	-2782
▁post	-2783
▁gaban	-2784
▁known	-2785
▁problem	-2786
ID	-2787
▁cur	-2788
▁oṣù	-2789
▁hụrụ	-2790
▁seem	-2791
▁contr	-2792
▁yarda	-2793
▁someone	-2794
sù	-2795
▁ɓ	-2796
---	-2797
▁Mut	-2798
▁Rep	-2799
▁ọdị	-2800
▁public	-2801
▁ig	-2802
▁Min	-2803
▁sta	-2804
gbẹ̀r	-2805
▁sign	-2806
hua	-2807
ika	-2808
irc	-2809
rest	-2810
▁Guinea	-2811
▁ịbụ	-2812
igure	-2813
▁fell	-2814
▁killed	-2815
ets	-2816
sìn	-2817
apua	-2818
▁fun	-2819
▁stay	-2820
▁anything	-2821
dí	-2822
▁Su	-2823
ennis	-2824
▁kada	-2825
▁Lagos	-2826
▁knows	-2827
gbẹ̀rún	-2828
▁zunubi	-2829
otu	-2830
▁big	-2831
ection	-2832
▁babban	-2833
▁friends	-2834
▁cin	-2835
ended	-2836
▁Wọ́n	-2837
▁tafiya	-2838
▁thousand	-2839
wọ̀	-2840
▁est	-2841
ralia	-2842
▁already	-2843
ṣì	-2844
aut	-2845
▁---	-2846
won	-2847
▁sit	-2848
▁òfin	-2849
ging	-2850
▁2015	-2851
jụjụ	-2852
▁ọjọ	-2853
▁camp	-2854
▁light	-2855
ójú	-2856
▁anọ	-2857
▁consid	-2858
ray	-2859
rán	-2860
▁sị	-2861
aring	-2862
▁ƙasa	-2863
▁offic	-2864
BC	-2865
No	-2866
▁ibu	-2867
▁fight	-2868
▁kwana	-2869
▁having	-2870
▁awa	-2871
▁true	-2872
▁sọ̀rọ̀	-2873
▁hankali	-2874
:3	-2875
au	-2876
▁You	-2877
▁exc	-2878
▁lives	-2879
▁Father	-2880
matụ	-2881
▁inda	-2882
hether	-2883
▁fall	-2884
▁pụtara	-2885
▁Brother	-2886
bọ̀	-2887
roy	-2888
▁hour	-2889
▁gburu	-2890
kì	-2891
Nig	-2892
pẹ́	-2893
▁lar	-2894
▁pay	-2895
▁taɓa	-2896
▁activ	-2897
▁Kristi	-2898
▁police	-2899
▁working	-2900
kaw	-2901
arsa	-2902
unu	-2903
zọs	-2904
▁jir	-2905
▁míì	-2906
▁ruwan	-2907
cip	-2908
ead	-2909
▁ranar	-2910
▁Tsarki	-2911
iru	-2912
▁bà	-2913
book	-2914
▁talk	-2915
▁ukwuu	-2916
▁author	-2917
▁office	-2918
que	-2919
▁lò	-2920
ẹ́yìn	-2921
▁shug	-2922
▁treat	-2923
tá	-2924
gboro	-2925
▁sing	-2926
▁means	-2927
bà	-2928
rent	-2929
▁sle	-2930
▁2017	-2931
▁change	-2932
▁wọ	-2933
gani	-2934
▁dri	-2935
▁amsa	-2936
▁hands	-2937
▁husband	-2938
úró	-2939
▁27	-2940
▁dra	-2941
▁ihu	-2942
▁Europe	-2943
FA	-2944
can	-2945
ton	-2946
ayen	-2947
▁using	-2948
chu	-2949
yri	-2950
ideo	-2951
▁mutu	-2952
▁glory	-2953
.7	-2954
▁Kò	-2955
▁Jizọs	-2956
▁living	-2957
▁taimaka	-2958
▁therefore	-2959
ico	-2960
uts	-2961
▁Ib	-2962
▁Wa	-2963
▁Kuma	-2964
▁tsamman	-2965
▁Tur	-2966
▁àtà	-2967
Papua	-2968
▁kana	-2969
▁Spirit	-2970
itten	-2971
▁abubuwa	-2972
ert	-2973
▁ịn	-2974
▁Cup	-2975
▁kàn	-2976
▁pur	-2977
▁destroy	-2978
▁tsammanin	-2979
To	-2980
-19	-2981
hel	-2982
mìn	-2983
▁buy	-2984
▁fiye	-2985
▁suff	-2986
hùn	-2987
ided	-2988
▁Akwai	-2989
▁ọnọdụ	-2990
▁report	-2991
sh	-2992
aim	-2993
raz	-2994
ump	-2995
▁"""	-2996
ospel	-2997
▁Hack	-2998
ken	-2999
lùú	-3000
▁tu	-3001
kọrịta	-3002
▁Trans	-3003
▁Muhammadu	-3004
sị	-3005
ṣà	-3006
Don	-3007
▁dem	-3008
ently	-3009
▁2016	-3010
▁examp	-3011
▁share	-3012
▁wants	-3013
▁system	-3014
rìn	-3015
▁sus	-3016
▁abok	-3017
ọ́nà	-3018
▁dang	-3019
ds	-3020
arí	-3021
ode	-3022
▁Nàí	-3023
▁mutumin	-3024
mo	-3025
elt	-3026
▁laun	-3027
▁bukatar	-3028
vail	-3029
▁May	-3030
▁Nor	-3031
▁aik	-3032
▁ebi	-3033
OV	-3034
▁ang	-3035
▁tsa	-3036
▁hannun	-3037
b͕	-3038
ré	-3039
vi	-3040
▁sá	-3041
▁ima	-3042
itical	-3043
▁offer	-3044
▁trust	-3045
▁English	-3046
▁àì	-3047
▁Sus	-3048
alima	-3049
▁lójú	-3050
aik	-3051
cri	-3052
ikpe	-3053
aster	-3054
▁bang	-3055
▁nkwa	-3056
▁Sarkin	-3057
▁gọọment	-3058
alt	-3059
oko	-3060
ican	-3061
ides	-3062
▁izere	-3063
▁leave	-3064
▁Cl	-3065
idai	-3066
àgbà	-3067
▁dal	-3068
▁French	-3069
▁partic	-3070
▁Australia	-3071
▁president	-3072
pec	-3073
oken	-3074
▁Now	-3075
▁bẹ̀rẹ̀	-3076
▁concer	-3077
jẹ́	-3078
Some	-3079
atta	-3080
hern	-3081
icle	-3082
sìkò	-3083
▁sac	-3084
▁kusa	-3085
▁relations	-3086
ìíràn	-3087
▁bisa	-3088
▁girl	-3089
▁daugh	-3090
▁daidai	-3091
ned	-3092
▁inj	-3093
▁Daw	-3094
▁past	-3095
rì	-3096
adị	-3097
▁ekp	-3098
ọ̀kan	-3099
▁Saul	-3100
▁tupu	-3101
▁Peter	-3102
▁Urush	-3103
▁expla	-3104
▁human	-3105
ambling	-3106
▁Urushalima	-3107
▁Ob	-3108
reng	-3109
▁rul	-3110
▁tre	-3111
▁Kore	-3112
▁cour	-3113
▁ọrịa	-3114
▁certain	-3115
▁present	-3116
wh	-3117
▁bab	-3118
▁ìdá	-3119
▁prep	-3120
jii	-3121
arry	-3122
▁media	-3123
▁ọ́fíìsì	-3124
den	-3125
▁tẹ̀	-3126
▁allow	-3127
▁girma	-3128
▁eas	-3129
▁began	-3130
▁strong	-3131
ado	-3132
Every	-3133
▁nakwa	-3134
▁sanya	-3135
▁ọbụna	-3136
▁matsayin	-3137
▁nas	-3138
▁okp	-3139
aching	-3140
ressed	-3141
▁gẹ́gẹ́	-3142
▁started	-3143
▁àp	-3144
▁Nàì	-3145
▁arụ	-3146
▁eld	-3147
▁maj	-3148
▁wind	-3149
▁farko	-3150
▁Nàíjíríà	-3151
elf	-3152
omi	-3153
▁pop	-3154
sílẹ̀	-3155
▁dara	-3156
ession	-3157
▁local	-3158
versity	-3159
ɗin	-3160
▁evil	-3161
▁níbi	-3162
▁sara	-3163
▁homes	-3164
joy	-3165
▁Gh	-3166
▁Ass	-3167
▁ise	-3168
▁olù	-3169
▁ruwa	-3170
▁incre	-3171
▁Trenbolone	-3172
wn	-3173
uza	-3174
▁199	-3175
▁fil	-3176
▁tẹ́	-3177
▁cent	-3178
▁rese	-3179
▁ẹgbẹ́	-3180
▁including	-3181
ori	-3182
▁Kí	-3183
▁dw	-3184
akpọ	-3185
▁lai	-3186
ambra	-3187
ights	-3188
▁caus	-3189
▁sake	-3190
▁makes	-3191
atu	-3192
ici	-3193
▁uni	-3194
▁mẹ́ta	-3195
▁Joshua	-3196
▁National	-3197
ebi	-3198
▁ọmụ	-3199
tober	-3200
▁comes	-3201
▁aikata	-3202
uke	-3203
ivia	-3204
▁anci	-3205
▁Yahuza	-3206
Af	-3207
ank	-3208
erem	-3209
▁àmì	-3210
▁send	-3211
▁small	-3212
▁abinda	-3213
▁enough	-3214
▁mìíràn	-3215
▁prison	-3216
son	-3217
enti	-3218
▁Law	-3219
▁kir	-3220
▁sol	-3221
▁buru	-3222
▁àgbá	-3223
▁abinci	-3224
ably	-3225
▁cov	-3226
▁Olee	-3227
▁gaske	-3228
▁Dawuda	-3229
▁version	-3230
.8	-3231
akọ	-3232
com	-3233
▁yẹ	-3234
▁Pol	-3235
▁eji	-3236
▁kid	-3237
▁kúrò	-3238
▁shaw	-3239
▁branch	-3240
▁àtàwọn	-3241
▁eziokwu	-3242
▁morning	-3243
osh	-3244
àbò	-3245
▁Val	-3246
▁kaɗ	-3247
▁oke	-3248
▁ụtọ	-3249
▁ajụjụ	-3250
iwu	-3251
▁Pl	-3252
▁só	-3253
istr	-3254
▁written	-3255
ịst	-3256
▁yín	-3257
▁ọlọ́	-3258
rẹ́	-3259
▁Nai	-3260
▁webs	-3261
▁2018,	-3262
▁whether	-3263
▁jọ	-3264
reen	-3265
▁hon	-3266
▁red	-3267
▁guda	-3268
▁hold	-3269
▁Ẹjọ́	-3270
▁streng	-3271
ini	-3272
oul	-3273
ague	-3274
yawa	-3275
▁pub	-3276
▁const	-3277
▁taken	-3278
▁visit	-3279
▁voice	-3280
insa	-3281
▁job	-3282
▁àgbà	-3283
▁There	-3284
▁ghara	-3285
▁works	-3286
múlò	-3287
péjọ	-3288
▁buƙ	-3289
▁kula	-3290
▁é	-3291
conom	-3292
▁chang	-3293
▁kpọrọ	-3294
▁wasan	-3295
▁Kraịst	-3296
▁organi	-3297
!"	-3298
ɗe	-3299
kún	-3300
▁ty	-3301
egosi	-3302
▁whole	-3303
5)	-3304
▁cha	-3305
▁Juda	-3306
▁arrest	-3307
tù	-3308
▁Yan	-3309
▁fah	-3310
ature	-3311
▁Gịnị	-3312
▁mahai	-3313
▁nítorí	-3314
▁rayuwa	-3315
0)	-3316
ezi	-3317
▁cre	-3318
▁til	-3319
ghọta	-3320
▁matter	-3321
▁BBC	-3322
▁wah	-3323
▁Word	-3324
.—	-3325
yl	-3326
▁Ama	-3327
▁ọsọ	-3328
▁Holy	-3329
▁ọcha	-3330
ctober	-3331
IA	-3332
abụ	-3333
oud	-3334
▁Se	-3335
Alex	-3336
abar	-3337
▁nsọ	-3338
▁ọgụ	-3339
▁ọka	-3340
▁addu	-3341
▁appe	-3342
▁drin	-3343
▁near	-3344
▁China	-3345
▁Allahn	-3346
▁perform	-3347
atọ	-3348
asan	-3349
ẹlẹ̀	-3350
▁Bul	-3351
itter	-3352
▁aure	-3353
▁enjoy	-3354
▁sacri	-3355
oka	-3356
OVID	-3357
▁láì	-3358
▁forth	-3359
▁attack	-3360
▁example	-3361
used	-3362
▁die	-3363
▁kus	-3364
etara	-3365
▁beaut	-3366
▁Ìjọba	-3367
▁lọ́jọ́	-3368
▁social	-3369
▁mmetụta	-3370
▁shugaban	-3371
▁Ex	-3372
▁Mu	-3373
▁el	-3374
▁nta	-3375
▁rele	-3376
embers	-3377
▁—	-3378
▁Rọ́	-3379
▁hot	-3380
iving	-3381
iyawa	-3382
ology	-3383
▁2020	-3384
▁ƙaun	-3385
▁needs	-3386
ots	-3387
▁wò	-3388
irin	-3389
▁bad	-3390
▁top	-3391
arshe	-3392
▁dole	-3393
▁gani	-3394
▁song	-3395
arshen	-3396
▁toward	-3397
ukar	-3398
▁ọ̀d	-3399
nanya	-3400
▁alkaw	-3401
▁avail	-3402
▁fahim	-3403
▁mouth	-3404
▁tunani	-3405
▁language	-3406
▁relationship	-3407
omon	-3408
▁Koh	-3409
▁Luc	-3410
rents	-3411
▁ọnwa	-3412
▁seven	-3413
▁sauran	-3414
▁Ọlọ́run	-3415
▁Nígbà	-3416
▁ohere	-3417
.“	-3418
▁pá	-3419
utes	-3420
▁Cent	-3421
▁ọ̀nà	-3422
resent	-3423
▁gwara	-3424
▁ɗauka	-3425
▁rubuta	-3426
▁Anambra	-3427
vo	-3428
ils	-3429
▁31	-3430
▁Aug	-3431
▁hàn	-3432
itions	-3433
▁order	-3434
▁cities	-3435
▁ọgọ́rùn	-3436
ora	-3437
aces	-3438
garet	-3439
▁yawan	-3440
aturday	-3441
▁reason	-3442
▁ìgbìmọ̀	-3443
esh	-3444
ilt	-3445
▁mod	-3446
▁often	-3447
▁October	-3448
Let	-3449
▁My	-3450
akwa	-3451
greg	-3452
▁Muna	-3453
▁enyi	-3454
▁nílùú	-3455
paghara	-3456
▁question	-3457
Now	-3458
anụ	-3459
chn	-3460
ṣíà	-3461
aced	-3462
imin	-3463
▁kọ̀	-3464
▁lost	-3465
▁sins	-3466
▁Alice	-3467
Nigeria	-3468
▁business	-3469
▁Iji	-3470
▁nake	-3471
▁tool	-3472
▁vari	-3473
▁wrong	-3474
▁special	-3475
úkọ	-3476
fect	-3477
ogle	-3478
unan	-3479
▁Bet	-3480
▁ngw	-3481
▁circ	-3482
▁ụgwọ	-3483
▁COVID	-3484
▁ɗauki	-3485
▁months	-3486
▁gbasara	-3487
▁ntị	-3488
▁faru	-3489
▁clear	-3490
▁point	-3491
▁coming	-3492
▁proper	-3493
▁questions	-3494
▁tọ́	-3495
▁nanị	-3496
▁stor	-3497
▁video	-3498
eph	-3499
▁29	-3500
▁ways	-3501
▁az	-3502
anan	-3503
▁vict	-3504
Are	-3505
kpa	-3506
vor	-3507
▁inú	-3508
These	-3509
atara	-3510
▁wato	-3511
▁white	-3512
▁African	-3513
▁enweghị	-3514
▁ẹgbẹ̀rún	-3515
nam	-3516
▁Jo	-3517
oron	-3518
zing	-3519
▁ume	-3520
ecause	-3521
▁táwọn	-3522
▁gburugburu	-3523
eni	-3524
ozi	-3525
▁gar	-3526
▁This	-3527
▁Izere	-3528
▁gbara	-3529
aia	-3530
ede	-3531
ruct	-3532
▁Can	-3533
▁val	-3534
Jacob	-3535
▁Emma	-3536
ederal	-3537
However	-3538
▁Saboda	-3539
zan	-3540
▁APC	-3541
▁Com	-3542
▁wis	-3543
wòrán	-3544
▁mgba	-3545
▁begin	-3546
▁ọbụla	-3547
".	-3548
ṅụ	-3549
áyé	-3550
▁ja	-3551
arsu	-3552
kwasị	-3553
▁main	-3554
▁waɗannan	-3555
ayar	-3556
ults	-3557
▁Otu	-3558
ially	-3559
▁elect	-3560
atherine	-3561
▁Solomon	-3562
eze	-3563
▁--	-3564
▁less	-3565
Oliver	-3566
▁Rọ́ṣíà	-3567
▁casinos	-3568
▁remember	-3569
▁mad	-3570
▁Mana	-3571
▁countries	-3572
àbá	-3573
▁Ak	-3574
gest	-3575
▁Yak	-3576
▁hanya	-3577
▁publis	-3578
▁yourself	-3579
▁cut	-3580
▁tit	-3581
▁affected	-3582
now	-3583
uct	-3584
▁muke	-3585
George	-3586
▁produc	-3587
▁website	-3588
nwa	-3589
▁No	-3590
body	-3591
▁real	-3592
rànwọ́	-3593
▁least	-3594
▁diffic	-3595
ẹẹ	-3596
▁Ga	-3597
òfin	-3598
▁What	-3599
▁enye	-3600
▁room	-3601
▁wasn	-3602
▁Kamar	-3603
gàn	-3604
▁wu	-3605
atic	-3606
▁Susie	-3607
▁hukun	-3608
Charlie	-3609
▁FI	-3610
ired	-3611
▁Otú	-3612
▁equ	-3613
▁jar	-3614
▁available	-3615
rop	-3616
▁od	-3617
làyé	-3618
▁omi	-3619
▁ris	-3620
▁nílé	-3621
▁ẹ̀ka	-3622
▁makar	-3623
▁August	-3624
▁ancien	-3625
▁ugboro	-3626
▁mpaghara	-3627
eru	-3628
oso	-3629
ilar	-3630
kiri	-3631
▁Far	-3632
▁nam	-3633
▁fear	-3634
▁stre	-3635
▁taba	-3636
▁ọjọọ	-3637
gement	-3638
▁akụkụ	-3639
▁litta	-3640
▁shekaru	-3641
atch	-3642
pped	-3643
side	-3644
▁kab	-3645
orrow	-3646
▁babu	-3647
▁koma	-3648
▁move	-3649
▁ready	-3650
▁watch	-3651
Os	-3652
eré	-3653
rum	-3654
▁abụghị	-3655
▁comfort	-3656
▁parents	-3657
▁Saturday	-3658
▁Ag	-3659
ọwọ́	-3660
▁def	-3661
▁umar	-3662
▁Kohat	-3663
enweghị	-3664
▁atụmatụ	-3665
At	-3666
▁Bl	-3667
▁àṣẹ	-3668
▁fita	-3669
▁security	-3670
▁following	-3671
zer	-3672
▁iko	-3673
▁irú	-3674
▁iwe	-3675
▁sat	-3676
▁sil	-3677
amuel	-3678
ucation	-3679
Muhammad	-3680
▁process	-3681
St	-3682
Our	-3683
ont	-3684
uit	-3685
eous	-3686
oyin	-3687
▁100	-3688
▁Uni	-3689
James	-3690
anish	-3691
▁tree	-3692
Ligure	-3693
▁birth	-3694
▁making	-3695
▁congreg	-3696
▁tsakanin	-3697
udi	-3698
Adam	-3699
▁pract	-3700
ára	-3701
▁eke	-3702
▁nkw	-3703
▁agba	-3704
acebook	-3705
▁church	-3706
▁nyocha	-3707
▁members	-3708
▁students	-3709
4)	-3710
▁cop	-3711
▁form	-3712
▁Korea	-3713
▁Carmen	-3714
▁gambling	-3715
má	-3716
wù	-3717
nye	-3718
▁ọd	-3719
▁Mag	-3720
▁mfe	-3721
Harry	-3722
▁agbè	-3723
enyere	-3724
▁accept	-3725
▁Kingdom	-3726
▁service	-3727
dì	-3728
▁Bá	-3729
▁jo	-3730
.---	-3731
most	-3732
ished	-3733
vention	-3734
▁karanta	-3735
▁tabbatar	-3736
▁ol	-3737
insu	-3738
▁bíi	-3739
▁Ẹ̀ka	-3740
▁study	-3741
▁possible	-3742
Joe	-3743
anet	-3744
iful	-3745
▁Lee	-3746
▁lik	-3747
▁cult	-3748
▁walk	-3749
ciples	-3750
ụnyere	-3751
▁Julia	-3752
▁Naijir	-3753
▁received	-3754
acy	-3755
ụsụ	-3756
alẹ̀	-3757
▁ewu	-3758
▁Laur	-3759
▁kuke	-3760
▁Samuel	-3761
▁America	-3762
▁history	-3763
▁El	-3764
gbọ́	-3765
icked	-3766
lógún	-3767
▁Cong	-3768
▁later	-3769
▁result	-3770
▁within	-3771
dín	-3772
ese	-3773
ott	-3774
òro	-3775
▁Nd	-3776
▁ntụ	-3777
▁ple	-3778
▁looking	-3779
▁Or	-3780
cent	-3781
▁Lucy	-3782
▁Sept	-3783
▁kafin	-3784
▁created	-3785
▁encoura	-3786
port	-3787
▁ten	-3788
▁dare	-3789
▁spake	-3790
▁ground	-3791
▁record	-3792
▁tuntun	-3793
▁million	-3794
▁answered	-3795
ban	-3796
Jami	-3797
ahịa	-3798
▁situ	-3799
▁yaƙi	-3800
▁Power	-3801
assa	-3802
fere	-3803
▁anụ	-3804
▁sak	-3805
▁ver	-3806
allen	-3807
▁ìgbé	-3808
▁ọnwụ	-3809
▁ọwọ́	-3810
▁break	-3811
▁ọ̀kan	-3812
aly	-3813
agha	-3814
cess	-3815
ints	-3816
▁Chi	-3817
▁dùn	-3818
▁ord	-3819
ologo	-3820
▁born	-3821
▁fito	-3822
▁àkọ́	-3823
▁answer	-3824
ped	-3825
sùn	-3826
ista	-3827
gbọ̀n	-3828
▁coun	-3829
▁ekpere	-3830
▁megide	-3831
▁ṣùgbọ́n	-3832
òó	-3833
▁Anna	-3834
▁story	-3835
▁tsaya	-3836
fo	-3837
esa	-3838
ugu	-3839
àní	-3840
▁ok	-3841
ecut	-3842
▁ụka	-3843
ccess	-3844
▁Gospel	-3845
▁married	-3846
▁football	-3847
TM	-3848
bur	-3849
gbó	-3850
obo	-3851
ilae	-3852
innu	-3853
work	-3854
▁joy	-3855
▁tán	-3856
▁save	-3857
▁Phili	-3858
use	-3859
zar	-3860
▁jà	-3861
ndín	-3862
▁News	-3863
▁field	-3864
ẹ́kọ̀ọ́	-3865
▁mamaki	-3866
▁myself	-3867
▁complet	-3868
▁maganar	-3869
▁perfect	-3870
▁American	-3871
idi	-3872
iano	-3873
▁Eva	-3874
▁gold	-3875
▁event	-3876
▁Online	-3877
.0	-3878
ró	-3879
imọ̀	-3880
isto	-3881
kere	-3882
raph	-3883
fully	-3884
iding	-3885
▁lọ́nà	-3886
▁serve	-3887
▁ezigbo	-3888
▁priests	-3889
dle	-3890
▁gē	-3891
▁ben	-3892
raham	-3893
▁FIFA	-3894
cember	-3895
▁komai	-3896
ittilae	-3897
afọ	-3898
▁Par	-3899
ortun	-3900
▁City	-3901
▁phone	-3902
▁priest	-3903
NE	-3904
rẹ	-3905
pàá	-3906
▁ṣí	-3907
ìyàn	-3908
ening	-3909
Kittilae	-3910
▁difficult	-3911
▁experience	-3912
woro	-3913
▁nle	-3914
▁nne	-3915
▁ìyà	-3916
thren	-3917
▁view	-3918
▁class	-3919
▁party	-3920
▁compet	-3921
bia	-3922
▁conv	-3923
▁soul	-3924
▁ƙara	-3925
▁alone	-3926
▁agbègbè	-3927
▁commanded	-3928
ross	-3929
▁Dole	-3930
▁nílò	-3931
▁chick	-3932
▁rashin	-3933
▁turned	-3934
▁Kir	-3935
▁mov	-3936
▁rig	-3937
▁soon	-3938
▁wors	-3939
askiya	-3940
▁Devid	-3941
▁nufin	-3942
▁relig	-3943
William	-3944
▁company	-3945
▁provide	-3946
▁community	-3947
▁development	-3948
ky	-3949
wà	-3950
ored	-3951
▁Abu	-3952
▁Pro	-3953
▁third	-3954
ekw	-3955
gùn	-3956
uni	-3957
iter	-3958
▁Spanish	-3959
▁message	-3960
jan	-3961
ikom	-3962
▁tas	-3963
▁Babu	-3964
▁held	-3965
▁Creat	-3966
▁Litta	-3967
▁receive	-3968
▁International	-3969
ocr	-3970
imman	-3971
▁once	-3972
▁shirya	-3973
▁trying	-3974
Be	-3975
ƙin	-3976
▁Sur	-3977
antar	-3978
istry	-3979
▁else	-3980
▁road	-3981
▁table	-3982
▁whose	-3983
▁anyone	-3984
▁direct	-3985
▁December	-3986
▁brethren	-3987
▁election	-3988
▁September	-3989
gó	-3990
.12	-3991
▁Dr	-3992
ctor	-3993
over	-3994
After	-3995
gbára	-3996
▁riga	-3997
▁ọkàn	-3998
▁mmehie	-3999
▁Facebook	-4000
▁abubuwan	-4001
▁Nigerians	-4002
eng	-4003
▁fá	-4004
▁tuna	-4005
▁wuri	-4006
ically	-4007
▁along	-4008
▁ṣẹlẹ̀	-4009
▁nasara	-4010
▁wonder	-4011
▁Catherine	-4012
AR	-4013
▁Mad	-4014
▁nde	-4015
itted	-4016
onesia	-4017
reedom	-4018
▁Olivia	-4019
▁needed	-4020
▁Margaret	-4021
▁everyone	-4022
▁rá	-4023
▁àf	-4024
▁Mal	-4025
▁occ	-4026
▁Good	-4027
▁grow	-4028
▁priv	-4029
ftware	-4030
▁yanke	-4031
▁taking	-4032
yọ	-4033
gbò	-4034
leg	-4035
▁gw	-4036
▁vi	-4037
▁ƙo	-4038
▁One	-4039
▁eré	-4040
▁net	-4041
▁kall	-4042
▁ìyẹn	-4043
▁Monica	-4044
rad	-4045
aled	-4046
▁Tun	-4047
▁tot	-4048
imiri	-4049
▁njem	-4050
▁oper	-4051
pecially	-4052
▁fathers	-4053
▁àkọ́kọ́	-4054
▁Valentina	-4055
Who	-4056
pti	-4057
úrà	-4058
▁bat	-4059
▁cho	-4060
ached	-4061
▁June	-4062
▁major	-4063
▁mmasị	-4064
▁Abraham	-4065
▁Naijiria	-4066
▁problems	-4067
▁arábìnrin	-4068
abịa	-4069
▁Bar	-4070
▁Fil	-4071
▁ọkọ	-4072
▁abun	-4073
▁issu	-4074
▁jour	-4075
▁wild	-4076
ọ̀ngàn	-4077
▁access	-4078
och	-4079
▁gun	-4080
▁ìjì	-4081
▁area	-4082
▁neman	-4083
▁short	-4084
oni	-4085
igwe	-4086
ivid	-4087
▁ayy	-4088
▁emp	-4089
▁foc	-4090
▁gbá	-4091
▁sum	-4092
▁burn	-4093
▁half	-4094
▁koya	-4095
wọnsẹ̀	-4096
▁casino	-4097
▁course	-4098
▁neither	-4099
▁players	-4100
▁ur	-4101
ghar	-4102
▁dig	-4103
▁din	-4104
▁hor	-4105
▁pra	-4106
attle	-4107
ledge	-4108
▁March	-4109
▁colle	-4110
▁sleep	-4111
▁agbụrụ	-4112
▁behold	-4113
▁transl	-4114
▁ogologo	-4115
▁righteous	-4116
AN	-4117
ham	-4118
ókè	-4119
Jack	-4120
dúrà	-4121
ọchi	-4122
▁Cor	-4123
▁Jew	-4124
▁Kada	-4125
zation	-4126
▁Domin	-4127
▁appro	-4128
lẹ	-4129
ym	-4130
par	-4131
pụrụ	-4132
raid	-4133
xico	-4134
▁ìwà	-4135
Tommy	-4136
▁ààbò	-4137
▁econom	-4138
▁ìròyìn	-4139
▁opportun	-4140
Br	-4141
hàn	-4142
ntí	-4143
oyi	-4144
ilawa	-4145
rílẹ̀	-4146
ójútó	-4147
▁Hall	-4148
▁bula	-4149
▁holy	-4150
▁sold	-4151
▁Joseph	-4152
▁Yakubu	-4153
▁dukkan	-4154
▁buƙatar	-4155
▁kingdom	-4156
▁release	-4157
▁building	-4158
gọ́	-4159
▁bra	-4160
inụlọ	-4161
▁door	-4162
▁ekwe	-4163
▁rufe	-4164
▁tour	-4165
▁displ	-4166
▁match	-4167
▁osisi	-4168
▁getting	-4169
rog	-4170
▁chọ	-4171
▁muh	-4172
▁(200	-4173
▁gane	-4174
▁ikwu	-4175
▁ẹ̀tọ́	-4176
▁account	-4177
▁meeting	-4178
ẹsẹ̀wọnsẹ̀	-4179
ikọ	-4180
▁Che	-4181
▁lov	-4182
▁July	-4183
▁bane	-4184
▁ọkwa	-4185
▁forced	-4186
▁inside	-4187
▁looked	-4188
▁market	-4189
▁beautiful	-4190
gwa	-4191
▁Je	-4192
▁kẹ	-4193
▁ṣì	-4194
achị	-4195
pril	-4196
▁Ndi	-4197
▁ago	-4198
▁kad	-4199
Oscar	-4200
▁goal	-4201
▁inye	-4202
▁kake	-4203
▁kalm	-4204
▁North	-4205
▁cause	-4206
▁early	-4207
▁fatan	-4208
▁games	-4209
▁Republic	-4210
▁national	-4211
hin	-4212
▁Ye	-4213
sure	-4214
▁sea	-4215
▁tar	-4216
itary	-4217
▁ekwu	-4218
▁kuna	-4219
▁invol	-4220
▁karịrị	-4221
ted	-4222
▁age	-4223
ittee	-4224
▁padà	-4225
▁self	-4226
▁nweta	-4227
▁stood	-4228
▁mkpụrụ	-4229
▁daughter	-4230
▁gọọmentị	-4231
.10	-4232
dọ̀	-4233
usu	-4234
▁32	-4235
▁ọm	-4236
▁pict	-4237
▁step	-4238
▁became	-4239
kok	-4240
▁50	-4241
▁Abin	-4242
▁enem	-4243
▁wípé	-4244
▁ọkọ̀	-4245
▁clean	-4246
▁zaune	-4247
▁rayuwar	-4248
eso	-4249
jálù	-4250
▁Eze	-4251
▁Kol	-4252
uture	-4253
▁Ruhu	-4254
▁afraid	-4255
.11	-4256
▁Pe	-4257
▁dà	-4258
load	-4259
ríkà	-4260
▁mom	-4261
▁ìpà	-4262
ators	-4263
ciety	-4264
ester	-4265
▁Suka	-4266
▁juna	-4267
▁plug	-4268
▁wall	-4269
▁ìṣẹ̀	-4270
▁carry	-4271
▁happy	-4272
▁respons	-4273
fer	-4274
iet	-4275
▁Ir	-4276
iaka	-4277
soci	-4278
▁ije	-4279
▁ndu	-4280
▁pap	-4281
ilies	-4282
vious	-4283
▁travel	-4284
▁challen	-4285
▁Ìgbìmọ̀	-4286
▁addition	-4287
▁represent	-4288
▁especially	-4289
unts	-4290
▁kiy	-4291
▁race	-4292
▁sell	-4293
▁bakin	-4294
▁sunan	-4295
▁ụgbọala	-4296
▁happened	-4297
▁research	-4298
2)	-4299
key	-4300
ney	-4301
▁nz	-4302
itor	-4303
làmú	-4304
▁onw	-4305
alaba	-4306
▁cast	-4307
▁pret	-4308
▁trad	-4309
ending	-4310
▁troub	-4311
▁ngwaọrụ	-4312
,”	-4313
gn	-4314
vy	-4315
edu	-4316
▁Ìt	-4317
▁ipò	-4318
aniya	-4319
enant	-4320
▁clos	-4321
▁deep	-4322
▁fill	-4323
▁ruru	-4324
▁cases	-4325
▁level	-4326
▁launin	-4327
wọ	-4328
Ind	-4329
uel	-4330
ners	-4331
oever	-4332
▁Fran	-4333
ources	-4334
▁saịtị	-4335
▁albarka	-4336
4,	-4337
cel	-4338
▁40	-4339
▁Akụ	-4340
▁tab	-4341
▁jiki	-4342
▁viol	-4343
▁April	-4344
▁chief	-4345
▁agaghị	-4346
▁mutuwa	-4347
▁ìfẹsẹ̀wọnsẹ̀	-4348
-2	-4349
DP	-4350
▁Gi	-4351
elie	-4352
stan	-4353
▁Net	-4354
▁Res	-4355
▁fat	-4356
▁ori	-4357
Shell	-4358
▁díẹ̀	-4359
▁easy	-4360
▁sett	-4361
ternet	-4362
▁biyar	-4363
▁sever	-4364
?1	-4365
ER	-4366
nia	-4367
ụwa	-4368
▁Feb	-4369
fiyar	-4370
ondon	-4371
▁Bana	-4372
▁Google	-4373
▁League	-4374
▁article	-4375
▁decision	-4376
▁spiritual	-4377
gwè	-4378
▁1,	-4379
▁Tí	-4380
▁ik	-4381
▁lí	-4382
▁Ste	-4383
▁iná	-4384
ences	-4385
razil	-4386
▁forg	-4387
▁prin	-4388
▁safe	-4389
▁yiri	-4390
urther	-4391
▁Health	-4392
▁bọ́ọ̀lù	-4393
▁probably	-4394
hon	-4395
ụma	-4396
▁Sw	-4397
▁ìl	-4398
iday	-4399
▁non	-4400
▁ịdị	-4401
epụta	-4402
▁goma	-4403
onesiano	-4404
Ka	-4405
.14	-4406
ream	-4407
▁det	-4408
▁taa	-4409
▁Ààrẹ	-4410
▁quick	-4411
▁youth	-4412
▁bakwai	-4413
▁individ	-4414
▁families	-4415
▁How	-4416
▁dark	-4417
▁judg	-4418
gbègbè	-4419
▁above	-4420
▁kaɗai	-4421
▁Gbọ̀ngàn	-4422
6)	-4423
come	-4424
▁bud	-4425
▁nation	-4426
▁isiokwu	-4427
▁actually	-4428
dó	-4429
.13	-4430
fún	-4431
umb	-4432
▁yí	-4433
Chad	-4434
With	-4435
acha	-4436
osts	-4437
ties	-4438
▁cry	-4439
▁ozu	-4440
inese	-4441
▁gina	-4442
▁gudu	-4443
▁town	-4444
though	-4445
▁cross	-4446
▁birnin	-4447
▁nchekwa	-4448
▁PowerShell	-4449
▁translation	-4450
99	-4451
by	-4452
Can	-4453
▁Fin	-4454
▁Fir	-4455
▁rán	-4456
▁dalil	-4457
▁Asabar	-4458
▁London	-4459
▁secret	-4460
▁several	-4461
▁consider	-4462
▁mmekọrịta	-4463
ater	-4464
gine	-4465
icha	-4466
▁ful	-4467
▁ɗin	-4468
▁That	-4469
▁gone	-4470
▁Mbara	-4471
▁Àlàmú	-4472
▁France	-4473
▁assist	-4474
▁shirin	-4475
▁protect	-4476
tr	-4477
ọl	-4478
"""	-4479
emi	-4480
hịa	-4481
mon	-4482
▁CC	-4483
▁ony	-4484
ament	-4485
itude	-4486
riage	-4487
▁Phil	-4488
▁wọ̀n	-4489
▁àpéjọ	-4490
▁depart	-4491
Ku	-4492
cl	-4493
co	-4494
ago	-4495
uli	-4496
ṣẹ̀	-4497
▁Ed	-4498
▁hid	-4499
ensen	-4500
▁purp	-4501
▁yaya	-4502
▁asụsụ	-4503
▁leaders	-4504
,'	-4505
SS	-4506
ƙe	-4507
ops	-4508
▁ìh	-4509
awar	-4510
▁bag	-4511
▁host	-4512
lement	-4513
▁deliv	-4514
ruction	-4515
▁almost	-4516
▁Russian	-4517
istration	-4518
▁released	-4519
.16	-4520
aha	-4521
bon	-4522
tig	-4523
▁Ok	-4524
▁tọ	-4525
▁ut	-4526
nder	-4527
▁Mac	-4528
▁lim	-4529
▁pot	-4530
▁ziri	-4531
Please	-4532
istoci	-4533
ospital	-4534
▁zuciya	-4535
▁talking	-4536
rà	-4537
ṣè	-4538
His	-4539
▁tì	-4540
kets	-4541
▁Rom	-4542
▁rac	-4543
▁òkè	-4544
▁Port	-4545
▁kafa	-4546
▁Abuja	-4547
▁bauta	-4548
▁discuss	-4549
rom	-4550
ury	-4551
Then	-4552
enty	-4553
pite	-4554
▁hung	-4555
▁ikon	-4556
▁hours	-4557
anyeghị	-4558
ulation	-4559
▁crimin	-4560
▁freedom	-4561
▁success	-4562
▁offering	-4563
▁situation	-4564
:4	-4565
ror	-4566
àjà	-4567
▁nh	-4568
abol	-4569
medi	-4570
▁Ebe	-4571
▁ayi	-4572
▁àkó	-4573
▁bada	-4574
▁títí	-4575
▁benef	-4576
▁thank	-4577
▁future	-4578
▁current	-4579
▁nations	-4580
ɓi	-4581
lain	-4582
▁beg	-4583
igned	-4584
obodo	-4585
ternal	-4586
▁Littafi	-4587
▁international	-4588
1)	-4589
kk	-4590
.17	-4591
▁dú	-4592
pain	-4593
▁due	-4594
ising	-4595
▁arri	-4596
▁ezie	-4597
▁Àmọ́	-4598
▁Akụkọ	-4599
▁based	-4600
▁cutar	-4601
▁drink	-4602
▁tsoron	-4603
▁ezinụlọ	-4604
▁ourselves	-4605
▁University	-4606
!!	-4607
sue	-4608
ádọ́	-4609
ụnye	-4610
▁Are	-4611
▁Zai	-4612
▁hig	-4613
▁ndá	-4614
▁Cali	-4615
▁ìdán	-4616
itting	-4617
▁Brazil	-4618
▁Christensen	-4619
inin	-4620
itiz	-4621
kata	-4622
tàkì	-4623
▁tou	-4624
▁drug	-4625
▁gano	-4626
▁kópa	-4627
▁wuce	-4628
▁Dennis	-4629
▁jirgin	-4630
▁please	-4631
▁address	-4632
3)	-4633
cil	-4634
láà	-4635
puta	-4636
▁Mat	-4637
▁dise	-4638
▁poor	-4639
▁teac	-4640
▁àtún	-4641
▁enter	-4642
▁saved	-4643
ampions	-4644
▁kiyaye	-4645
▁Commons	-4646
▁delivered	-4647
▁congregation	-4648
she	-4649
▁Ac	-4650
▁sẹ́	-4651
ruary	-4652
▁mine	-4653
▁ṣètò	-4654
etimes	-4655
tained	-4656
▁watan	-4657
▁announ	-4658
▁former	-4659
▁stated	-4660
alar	-4661
onwe	-4662
rove	-4663
ural	-4664
▁Gal	-4665
▁Nwa	-4666
▁bara	-4667
▁cust	-4668
▁kejì	-4669
▁ẹlẹ́	-4670
cience	-4671
▁exist	-4672
▁polic	-4673
immanci	-4674
▁Muslim	-4675
▁rights	-4676
▁destroyed	-4677
ƙar	-4678
ekpe	-4679
ises	-4680
▁arm	-4681
▁bọ̀	-4682
▁gbó	-4683
▁swe	-4684
erson	-4685
▁jiri	-4686
▁kept	-4687
▁recog	-4688
▁review	-4689
▁disciples	-4690
mù	-4691
ims	-4692
▁Sam	-4693
▁òṣì	-4694
aking	-4695
fààní	-4696
▁Spain	-4697
▁admin	-4698
▁price	-4699
▁taron	-4700
akwụkwọ	-4701
▁prophet	-4702
Pe	-4703
nụ	-4704
ɗu	-4705
bẹ́	-4706
gar	-4707
uck	-4708
▁34	-4709
▁ìs	-4710
kéde	-4711
▁Lak	-4712
▁sad	-4713
kwụsị	-4714
where	-4715
▁issue	-4716
▁anaghị	-4717
▁abincin	-4718
▁servants	-4719
lè	-4720
▁Do	-4721
tiku	-4722
▁CIA	-4723
▁Ish	-4724
▁Sim	-4725
▁eto	-4726
▁tin	-4727
▁Dani	-4728
▁kaina	-4729
▁ẹ̀kọ́	-4730
▁ụmụaka	-4731
ccording	-4732
▁mgbanwe	-4733
▁covenant	-4734
▁littafin	-4735
debe	-4736
omen	-4737
rict	-4738
▁izu	-4739
▁Àjọ	-4740
▁ƙoƙ	-4741
Jesus	-4742
enced	-4743
▁Loka	-4744
▁estab	-4745
▁márùn	-4746
▁nílẹ̀	-4747
▁sound	-4748
▁strength	-4749
▁Government	-4750
1,	-4751
Me	-4752
ɓe	-4753
erc	-4754
hab	-4755
ued	-4756
▁yọ	-4757
adin	-4758
crib	-4759
lesh	-4760
▁Jon	-4761
▁Kai	-4762
▁Kar	-4763
▁Men	-4764
▁air	-4765
▁ịtụ	-4766
akụkụ	-4767
▁mugun	-4768
▁sabon	-4769
▁takes	-4770
▁zaman	-4771
50	-4772
put	-4773
▁Uz	-4774
▁Eli	-4775
▁Est	-4776
▁cup	-4777
▁tom	-4778
▁Biko	-4779
▁àmọ́	-4780
▁shalt	-4781
▁write	-4782
▁behind	-4783
▁education	-4784
FF	-4785
uo	-4786
xy	-4787
.15	-4788
ied	-4789
agwa	-4790
head	-4791
ills	-4792
▁lad	-4793
▁Bayan	-4794
▁large	-4795
▁regard	-4796
▁wicked	-4797
▁kachasị	-4798
▁osimiri	-4799
6,	-4800
.19	-4801
app	-4802
▁App	-4803
▁Pre	-4804
▁aji	-4805
Where	-4806
▁corn	-4807
▁fast	-4808
ubọchi	-4809
▁close	-4810
▁kings	-4811
▁threat	-4812
▁England	-4813
▁February	-4814
asta	-4815
lete	-4816
abake	-4817
hered	-4818
obile	-4819
rahim	-4820
right	-4821
▁When	-4822
▁deta	-4823
▁dúró	-4824
▁inwe	-4825
▁mmụọ	-4826
▁itself	-4827
▁mẹ́rin	-4828
▁states	-4829
▁publishers	-4830
Am	-4831
ọv	-4832
bey	-4833
▁Qu	-4834
ught	-4835
▁Dis	-4836
▁Let	-4837
▁ngwá	-4838
▁reve	-4839
▁Masar	-4840
▁favor	-4841
▁longer	-4842
▁rather	-4843
▁Philipp	-4844
Sh	-4845
tu	-4846
ape	-4847
kpụ	-4848
lov	-4849
oad	-4850
▁ve	-4851
ighb	-4852
▁Waɗ	-4853
abata	-4854
▁duba	-4855
▁focus	-4856
.18	-4857
dán	-4858
uly	-4859
yom	-4860
▁33	-4861
▁Làbá	-4862
▁deal	-4863
▁igwe	-4864
▁kull	-4865
▁madu	-4866
▁tiẹ̀	-4867
▁yara	-4868
▁built	-4869
▁dwell	-4870
▁kansu	-4871
▁river	-4872
▁member	-4873
▁servant	-4874
▁wadanda	-4875
ota	-4876
▁Tw	-4877
reme	-4878
wùjọ	-4879
▁Mah	-4880
▁ókè	-4881
▁Site	-4882
▁fata	-4883
▁seri	-4884
ective	-4885
▁flesh	-4886
▁worth	-4887
ression	-4888
▁places	-4889
▁season	-4890
▁minutes	-4891
.(	-4892
▁Ló	-4893
amak	-4894
istan	-4895
tains	-4896
▁West	-4897
▁dere	-4898
▁moun	-4899
▁pèsè	-4900
▁grace	-4901
▁caused	-4902
▁tẹ́lẹ̀	-4903
▁returned	-4904
Ph	-4905
pu	-4906
rip	-4907
many	-4908
roid	-4909
▁bit	-4910
▁kok	-4911
asure	-4912
itive	-4913
kiyar	-4914
ọvanọ	-4915
▁Jord	-4916
▁Okwu	-4917
▁hast	-4918
▁ones	-4919
▁areas	-4920
▁techn	-4921
▁tsoro	-4922
▁kankan	-4923
▁neighb	-4924
▁wọ̀nyí	-4925
▁Philist	-4926
▁political	-4927
ukọ	-4928
uzọ	-4929
fice	-4930
ziri	-4931
▁Ser	-4932
oboam	-4933
▁phys	-4934
▁susp	-4935
▁elders	-4936
▁position	-4937
8)	-4938
Did	-4939
awa	-4940
esị	-4941
▁(3	-4942
▁hụ	-4943
stit	-4944
▁Roy	-4945
▁Sec	-4946
▁Ẹni	-4947
amero	-4948
▁Haik	-4949
▁anim	-4950
anuary	-4951
▁sight	-4952
▁Ibrahim	-4953
▁reports	-4954
por	-4955
Your	-4956
▁boy	-4957
▁Serv	-4958
▁idea	-4959
▁plugin	-4960
▁ịhụnanya	-4961
ble	-4962
▁TV	-4963
ific	-4964
ukwu	-4965
únjẹ	-4966
▁kún	-4967
amara	-4968
▁Nove	-4969
▁perm	-4970
fornia	-4971
ograph	-4972
▁birds	-4973
▁reali	-4974
ameroon	-4975
▁wancan	-4976
▁outside	-4977
▁software	-4978
vir	-4979
▁Ju	-4980
anwụ	-4981
ateg	-4982
ding	-4983
▁Bel	-4984
▁Ike	-4985
▁Sara	-4986
▁hall	-4987
▁Gener	-4988
▁midst	-4989
▁níbẹ̀	-4990
▁immedi	-4991
▁manyan	-4992
▁Filisti	-4993
▁further	-4994
▁yanayin	-4995
mai	-4996
▁adị	-4997
▁deb	-4998
▁àjà	-4999
▁baki	-5000
▁felt	-5001
▁ààrẹ	-5002
▁exper	-5003
▁láwọn	-5004
▁mẹ́fà	-5005
▁ọgụgụ	-5006
rection	-5007
▁Làbákẹ́	-5008
▁thereof	-5009
ṣá	-5010
kai	-5011
úlá	-5012
anne	-5013
maka	-5014
▁Med	-5015
▁ezu	-5016
▁ṣẹ̀	-5017
cript	-5018
▁club	-5019
mìnira	-5020
▁jikin	-5021
▁Sunday	-5022
▁hearts	-5023
▁deliver	-5024
▁Haikalin	-5025
▁sacrifice	-5026
'.	-5027
ato	-5028
ubi	-5029
▁ƙi	-5030
Many	-5031
▁pun	-5032
▁Part	-5033
▁Your	-5034
▁tara	-5035
▁yace	-5036
▁ẹ̀rí	-5037
▁Yanzu	-5038
▁cards	-5039
▁kacha	-5040
▁looks	-5041
▁quite	-5042
▁tried	-5043
▁Jordan	-5044
▁forget	-5045
▁wouldn	-5046
▁zuciyar	-5047
ex	-5048
jé	-5049
mà	-5050
ido	-5051
rid	-5052
wẹ̀	-5053
cast	-5054
▁sig	-5055
oster	-5056
▁Boko	-5057
▁Ohun	-5058
▁They	-5059
▁Thus	-5060
▁impr	-5061
▁rain	-5062
ntanet	-5063
Brother	-5064
▁Mexico	-5065
▁amince	-5066
.20	-5067
ply	-5068
ànà	-5069
▁Sí	-5070
▁ij	-5071
▁rò	-5072
▁rọ	-5073
year	-5074
▁gat	-5075
▁vir	-5076
▁àyí	-5077
▁miss	-5078
▁seek	-5079
▁wait	-5080
▁flood	-5081
▁fáwọn	-5082
▁shows	-5083
▁pàtàkì	-5084
▁gụnyere	-5085
▁tabbata	-5086
▁California	-5087
hew	-5088
▁Fl	-5089
▁Nw	-5090
aida	-5091
kọrọ	-5092
waye	-5093
▁Del	-5094
▁Heb	-5095
▁bac	-5096
▁key	-5097
▁káà	-5098
ional	-5099
▁eche	-5100
▁House	-5101
▁aláṣẹ	-5102
▁total	-5103
▁kowace	-5104
▁played	-5105
▁sister	-5106
▁playing	-5107
ná	-5108
̩n	-5109
▁,	-5110
pen	-5111
▁tụ	-5112
▁ìb	-5113
huwa	-5114
▁avo	-5115
▁bil	-5116
ehold	-5117
▁kọjá	-5118
▁lift	-5119
▁waje	-5120
▁wuya	-5121
ǹfààní	-5122
▁bread	-5123
esterday	-5124
▁January	-5125
▁instead	-5126
▁respect	-5127
▁Ṣùgbọ́n	-5128
ST	-5129
Chr	-5130
nwe	-5131
pap	-5132
▁akw	-5133
kwasi	-5134
▁Jews	-5135
▁wish	-5136
vestig	-5137
▁gives	-5138
▁nkiri	-5139
▁ikpeazụ	-5140
▁November	-5141
2,	-5142
alu	-5143
▁36	-5144
▁Sc	-5145
selv	-5146
▁led	-5147
adium	-5148
▁Benj	-5149
▁More	-5150
▁baby	-5151
▁cook	-5152
airman	-5153
▁Lakselv	-5154
▁particular	-5155
qi	-5156
aku	-5157
fee	-5158
pin	-5159
airs	-5160
▁Col	-5161
▁obs	-5162
▁pat	-5163
lying	-5164
▁Amẹ́	-5165
▁akpa	-5166
▁akwa	-5167
▁fada	-5168
▁kayan	-5169
▁kyakk	-5170
▁across	-5171
▁search	-5172
▁witness	-5173
▁marriage	-5174
apt	-5175
▁Si	-5176
abin	-5177
ceed	-5178
urka	-5179
▁Ana	-5180
▁bata	-5181
▁dace	-5182
▁yasa	-5183
▁ìmọ̀	-5184
agbalị	-5185
▁Ijipt	-5186
▁materi	-5187
▁ológun	-5188
▁nnyocha	-5189
▁malitere	-5190
▁knowledge	-5191
íṣ	-5192
vey	-5193
ọdu	-5194
▁Ṣe	-5195
egwu	-5196
▁Ekw	-5197
▁Moh	-5198
▁Old	-5199
▁Tag	-5200
▁zur	-5201
▁aika	-5202
▁cele	-5203
▁láàá	-5204
▁miƙa	-5205
▁rasa	-5206
▁Haram	-5207
▁obìnrin	-5208
▁serious	-5209
▁Amẹ́ríkà	-5210
▁personal	-5211
▁tomorrow	-5212
du	-5213
alụ	-5214
olu	-5215
▁mp	-5216
Thank	-5217
amasị	-5218
▁Bari	-5219
▁Sama	-5220
▁With	-5221
▁farm	-5222
▁legal	-5223
Because	-5224
▁entire	-5225
▁prayer	-5226
▁arrested	-5227
▁official	-5228
▁Committee	-5229
May	-5230
rod	-5231
tẹ̀	-5232
▁iz	-5233
Just	-5234
Urum	-5235
aign	-5236
padà	-5237
▁Isa	-5238
▁ịgb	-5239
cient	-5240
▁Suna	-5241
▁uweo	-5242
Urumqi	-5243
▁Bulus	-5244
▁citiz	-5245
▁laifi	-5246
▁celebr	-5247
▁Twitter	-5248
10	-5249
▁Â	-5250
jáde	-5251
▁War	-5252
▁lic	-5253
▁otù	-5254
asino	-5255
gbága	-5256
▁Yusu	-5257
▁yiwu	-5258
kwunye	-5259
▁nkeji	-5260
▁remain	-5261
▁dalilin	-5262
▁respond	-5263
According	-5264
AF	-5265
bar	-5266
cing	-5267
▁Ele	-5268
▁Zim	-5269
▁hur	-5270
▁lea	-5271
▁nka	-5272
▁ìyá	-5273
ammed	-5274
erous	-5275
▁kwuo	-5276
ointed	-5277
▁deter	-5278
▁broken	-5279
▁tsunts	-5280
▁Federal	-5281
▁Governor	-5282
▁Commission	-5283
Na	-5284
ald	-5285
gwà	-5286
kra	-5287
rel	-5288
mìnà	-5289
▁shan	-5290
▁Alamu	-5291
▁ọmụma	-5292
gagbága	-5293
▁opened	-5294
▁control	-5295
▁labarin	-5296
▁popular	-5297
▁musamman	-5298
▁kù	-5299
amọ́	-5300
kwem	-5301
▁flat	-5302
akwado	-5303
atives	-5304
▁alher	-5305
▁canza	-5306
▁wisdom	-5307
▁decided	-5308
▁efforts	-5309
ij	-5310
tẹ́	-5311
íga	-5312
kítà	-5313
alian	-5314
tọ́jú	-5315
ómìnà	-5316
▁feed	-5317
▁feet	-5318
▁none	-5319
▁page	-5320
▁rich	-5321
▁wọlé	-5322
erness	-5323
▁indic	-5324
▁mercy	-5325
▁separ	-5326
▁ugbua	-5327
orthern	-5328
▁Lokacin	-5329
▁tilasta	-5330
agụ	-5331
jọ̀	-5332
▁35	-5333
▁fì	-5334
▁láà	-5335
mkwem	-5336
▁Life	-5337
▁Nínú	-5338
▁adal	-5339
▁sick	-5340
atthew	-5341
enweta	-5342
▁Atiku	-5343
▁ebube	-5344
▁hannu	-5345
▁necess	-5346
▁ngalaba	-5347
▁results	-5348
▁workers	-5349
▁Benjamin	-5350
aman	-5351
anyi	-5352
more	-5353
uran	-5354
yata	-5355
ọọlụ	-5356
▁Des	-5357
▁Mic	-5358
▁bed	-5359
▁isa	-5360
▁olú	-5361
▁sex	-5362
▁ìbí	-5363
kpụrụ	-5364
▁Ukra	-5365
▁audi	-5366
▁date	-5367
▁draw	-5368
▁abada	-5369
▁chere	-5370
▁eight	-5371
▁loved	-5372
▁press	-5373
▁ìpàdé	-5374
▁ìṣòro	-5375
▁Amurka	-5376
▁happen	-5377
▁ngwaahịa	-5378
▁reported	-5379
▁wilderness	-5380
din	-5381
hold	-5382
ishi	-5383
sókè	-5384
umma	-5385
▁Sen	-5386
▁Èyí	-5387
▁Daga	-5388
▁abua	-5389
▁doub	-5390
▁gift	-5391
▁burnt	-5392
▁round	-5393
▁lásìkò	-5394
▁sitere	-5395
▁Chinese	-5396
▁include	-5397
▁Creative	-5398
▁judgment	-5399
▁completely	-5400
ọbụ	-5401
▁FC	-5402
▁Ke	-5403
àtọ̀	-5404
▁Abd	-5405
▁doll	-5406
kwukwọ	-5407
▁lived	-5408
▁mẹ́tà	-5409
amalite	-5410
▁Behold	-5411
▁chicken	-5412
▁ìṣẹ̀lẹ̀	-5413
▁Nàìjíríà	-5414
▁Philistines	-5415
ny	-5416
ech	-5417
ghe	-5418
kpo	-5419
▁Ken	-5420
▁den	-5421
▁York	-5422
▁lamb	-5423
▁ojii	-5424
uction	-5425
▁sword	-5426
outhern	-5427
▁single	-5428
▁window	-5429
▁program	-5430
▁gathered	-5431
▁military	-5432
▁thinking	-5433
▁akẹ́kọ̀ọ́	-5434
-3	-5435
Re	-5436
aph	-5437
ájú	-5438
acle	-5439
iyan	-5440
oday	-5441
▁abs	-5442
▁dum	-5443
▁ewe	-5444
eroid	-5445
utsen	-5446
uesday	-5447
▁Italy	-5448
▁túbọ̀	-5449
▁wrote	-5450
▁society	-5451
▁steroid	-5452
▁criminal	-5453
▁investig	-5454
oo	-5455
uto	-5456
ọnu	-5457
▁lay	-5458
abere	-5459
ource	-5460
▁agwa	-5461
▁damar	-5462
▁Monday	-5463
▁appear	-5464
▁wahala	-5465
▁nwetara	-5466
bì	-5467
omp	-5468
ians	-5469
ying	-5470
▁Lev	-5471
iling	-5472
▁Gama	-5473
▁Pers	-5474
▁Wani	-5475
atever	-5476
▁Nàìjí	-5477
▁akéde	-5478
▁Germany	-5479
▁injured	-5480
▁particip	-5481
▁statement	-5482
▁Philippines	-5483
▁opportunity	-5484
ler	-5485
oon	-5486
owa	-5487
rit	-5488
▁jó	-5489
▁rè	-5490
▁sk	-5491
asts	-5492
yria	-5493
▁dut	-5494
▁gaa	-5495
▁ìbá	-5496
▁ịga	-5497
araoh	-5498
beghị	-5499
lands	-5500
▁doro	-5501
▁mani	-5502
▁thus	-5503
▁akara	-5504
▁judge	-5505
▁lẹ́nu	-5506
▁issues	-5507
▁purpose	-5508
▁tambaye	-5509
▁interview	-5510
ON	-5511
chụ	-5512
kpu	-5513
sal	-5514
▁ibe	-5515
▁ẹnì	-5516
amine	-5517
asing	-5518
▁sand	-5519
▁lábẹ́	-5520
▁nwụrụ	-5521
▁surpr	-5522
▁tsarka	-5523
▁Pharaoh	-5524
▁activities	-5525
CH	-5526
lag	-5527
▁Ra	-5528
enal	-5529
erve	-5530
ract	-5531
raim	-5532
▁oil	-5533
▁rev	-5534
▁sna	-5535
▁tíì	-5536
▁ìjọ	-5537
▁2013	-5538
▁Heze	-5539
▁cand	-5540
lọ́wọ́	-5541
▁inher	-5542
▁parts	-5543
▁àjálù	-5544
▁mgbasa	-5545
▁waɗansu	-5546
▁authorities	-5547
Ex	-5548
fun	-5549
kee	-5550
uff	-5551
ọmp	-5552
▁Eb	-5553
▁pi	-5554
yasa	-5555
▁Ang	-5556
▁èrò	-5557
lọpọ̀	-5558
▁dawo	-5559
▁kara	-5560
▁line	-5561
▁mala	-5562
arning	-5563
▁2019.	-5564
▁oúnjẹ	-5565
▁ƙarfi	-5566
ibility	-5567
nwaanyị	-5568
▁giving	-5569
▁lọ́dún	-5570
▁spread	-5571
▁ordered	-5572
jẹ̀	-5573
▁Co	-5574
attu	-5575
entị	-5576
▁Tim	-5577
▁ịzụ	-5578
▁kere	-5579
▁laid	-5580
síwájú	-5581
▁daban	-5582
▁manta	-5583
▁mount	-5584
▁kokarin	-5585
▁ìrànwọ́	-5586
▁European	-5587
▁Minister	-5588
▁complete	-5589
▁governor	-5590
agbanyeghị	-5591
Tr	-5592
gid	-5593
▁Es	-5594
ighi	-5595
ikwa	-5596
▁NFF	-5597
▁hop	-5598
▁sọ́	-5599
▁tax	-5600
▁tso	-5601
▁ńlá	-5602
majir	-5603
▁ceto	-5604
▁coup	-5605
▁dubu	-5606
▁hous	-5607
▁trib	-5608
▁ụkwụ	-5609
gbẹ́ni	-5610
ursday	-5611
▁binci	-5612
▁bọọlụ	-5613
▁truly	-5614
▁Nàìjíí	-5615
▁belong	-5616
▁marasa	-5617
▁convers	-5618
▁mahaifin	-5619
GB	-5620
lí	-5621
nal	-5622
yẹ̀	-5623
adum	-5624
ffic	-5625
▁rob	-5626
▁vol	-5627
eriod	-5628
▁Ilẹ̀	-5629
▁Kuna	-5630
▁kuɗi	-5631
▁pain	-5632
▁inhab	-5633
▁yayin	-5634
▁dogara	-5635
▁praise	-5636
▁culture	-5637
▁disease	-5638
▁Therefore	-5639
▁yesterday	-5640
OS	-5641
wàá	-5642
mail	-5643
▁Ony	-5644
▁saf	-5645
▁Abub	-5646
▁Wind	-5647
▁bari	-5648
▁biri	-5649
▁gods	-5650
▁shak	-5651
▁ugwu	-5652
▁wuta	-5653
zọpụta	-5654
úláwọ̀	-5655
▁muscle	-5656
CC	-5657
oli	-5658
ugg	-5659
ẹjọ́	-5660
▁sar	-5661
While	-5662
udawa	-5663
▁gosi	-5664
▁mace	-5665
▁Kwere	-5666
ilities	-5667
▁common	-5668
▁origin	-5669
dìí	-5670
usi	-5671
Even	-5672
▁Day	-5673
▁biya	-5674
▁cell	-5675
ential	-5676
▁final	-5677
▁image	-5678
▁spend	-5679
Whoever	-5680
▁cancer	-5681
▁confir	-5682
▁couldn	-5683
▁either	-5684
▁ensure	-5685
▁capital	-5686
▁believed	-5687
▁explained	-5688
sụ	-5689
rus	-5690
ubo	-5691
yal	-5692
▁37	-5693
▁Fa	-5694
hazi	-5695
▁198	-5696
▁gra	-5697
▁lie	-5698
▁ìfi	-5699
▁Geor	-5700
▁card	-5701
▁fund	-5702
▁names	-5703
▁Ụfọdụ	-5704
ication	-5705
▁listen	-5706
▁simply	-5707
▁spoken	-5708
▁sẹ́yìn	-5709
▁effects	-5710
▁onyinye	-5711
▁uweojii	-5712
▁campaign	-5713
cis	-5714
ley	-5715
mar	-5716
▁b͕	-5717
acin	-5718
cons	-5719
ensu	-5720
umọ̀	-5721
▁Bal	-5722
▁Kan	-5723
▁ido	-5724
aliya	-5725
▁Láti	-5726
▁aiko	-5727
▁miri	-5728
chukwu	-5729
▁azụma	-5730
▁front	-5731
▁smart	-5732
ileanya	-5733
▁Royale	-5734
▁shaida	-5735
▁worship	-5736
9)	-5737
lav	-5738
alla	-5739
ghts	-5740
lejò	-5741
ocal	-5742
uhun	-5743
▁Bai	-5744
▁Lin	-5745
▁àwa	-5746
▁expl	-5747
▁Babyl	-5748
▁Langu	-5749
▁Ososo	-5750
▁altar	-5751
▁relie	-5752
▁chance	-5753
▁custom	-5754
▁project	-5755
▁wadannan	-5756
bin	-5757
rab	-5758
udu	-5759
▁Of	-5760
▁Ṣé	-5761
ibri	-5762
▁parí	-5763
ensive	-5764
▁India	-5765
▁Ọtụtụ	-5766
▁Friday	-5767
▁choose	-5768
▁hadaya	-5769
▁tsarki	-5770
▁Babylon	-5771
▁medical	-5772
Ní	-5773
ho	-5774
jị	-5775
yon	-5776
▁jí	-5777
emor	-5778
▁Nsọ	-5779
▁squ	-5780
▁ìhè	-5781
roate	-5782
▁conn	-5783
▁halin	-5784
▁ọkach	-5785
▁helped	-5786
▁passed	-5787
osterone	-5788
▁Yahudawa	-5789
▁conditions	-5790
▁throughout	-5791
ewe	-5792
hib	-5793
umi	-5794
acks	-5795
hood	-5796
ires	-5797
▁amb	-5798
▁ƙof	-5799
osing	-5800
ókítà	-5801
▁damu	-5802
▁insp	-5803
▁manu	-5804
vation	-5805
▁avoid	-5806
▁decla	-5807
▁likely	-5808
▁moment	-5809
▁òṣìṣẹ́	-5810
▁kpọmkwem	-5811
▁Nàìjííríà	-5812
bú	-5813
bai	-5814
▁ṣé	-5815
posh	-5816
pper	-5817
▁Bay	-5818
▁Nah	-5819
▁Who	-5820
apụta	-5821
arkar	-5822
osiri	-5823
▁goes	-5824
▁rere	-5825
▁star	-5826
▁Where	-5827
▁added	-5828
▁cikak	-5829
▁exact	-5830
▁kakan	-5831
▁mmeri	-5832
ability	-5833
▁raised	-5834
▁Central	-5835
▁allowed	-5836
▁alkawarin	-5837
▁attention	-5838
▁beginning	-5839
Mr	-5840
áa	-5841
.21	-5842
efu	-5843
ulu	-5844
kwas	-5845
urin	-5846
▁Isi	-5847
▁bes	-5848
▁ill	-5849
▁kur	-5850
▁pẹ́	-5851
▁mark	-5852
▁ƙwar	-5853
etinye	-5854
▁blind	-5855
▁tools	-5856
▁tribe	-5857
▁period	-5858
▁supposed	-5859
AP	-5860
ems	-5861
mma	-5862
uals	-5863
unta	-5864
▁bul	-5865
▁òtù	-5866
▁ọgb	-5867
epend	-5868
owore	-5869
▁Gree	-5870
▁achọ	-5871
▁coop	-5872
▁drop	-5873
▁phot	-5874
▁weak	-5875
ardian	-5876
▁seems	-5877
▁ọbara	-5878
▁charge	-5879
▁mkpebi	-5880
▁àwòrán	-5881
▁similar	-5882
▁kọ̀ọ̀kan	-5883
SC	-5884
ez	-5885
fan	-5886
fts	-5887
uko	-5888
▁sā	-5889
▁tẹ	-5890
▁Ìp	-5891
karị	-5892
uman	-5893
▁Bil	-5894
▁Dep	-5895
▁arọ	-5896
▁esi	-5897
▁maf	-5898
▁zin	-5899
▁Ọrụ	-5900
▁Ọzọ	-5901
erede	-5902
▁beat	-5903
▁defe	-5904
▁tsan	-5905
▁wine	-5906
▁yaro	-5907
▁angel	-5908
▁etiti	-5909
▁onwem	-5910
▁shaid	-5911
▁describ	-5912
▁firistoci	-5913
",	-5914
Ba	-5915
po	-5916
cen	-5917
tún	-5918
hail	-5919
▁kpe	-5920
▁udo	-5921
béèrè	-5922
embly	-5923
▁bott	-5924
▁emer	-5925
▁kare	-5926
▁kome	-5927
▁nine	-5928
croate	-5929
isions	-5930
▁dúpẹ́	-5931
▁almajir	-5932
▁however	-5933
▁offered	-5934
▁usually	-5935
▁products	-5936
▁competition	-5937
Go	-5938
▁Im	-5939
▁Ti	-5940
▁pú	-5941
aiah	-5942
ẹẹrẹ	-5943
▁Ade	-5944
▁Pet	-5945
▁imm	-5946
▁low	-5947
▁nau	-5948
pping	-5949
▁raba	-5950
▁ìtàn	-5951
▁ɗari	-5952
veness	-5953
▁nhọrọ	-5954
▁Daniel	-5955
▁kullum	-5956
▁player	-5957
▁silver	-5958
▁ìdàgbà	-5959
▁ẹ̀wọ̀n	-5960
▁contact	-5961
▁damaged	-5962
▁àgbááyé	-5963
▁shawarar	-5964
ix	-5965
nes	-5966
uter	-5967
▁Imo	-5968
▁fix	-5969
▁ìjà	-5970
▁cost	-5971
▁Bákan	-5972
▁create	-5973
▁general	-5974
▁inherit	-5975
▁prevent	-5976
▁concerning	-5977
.’	-5978
24	-5979
Ar	-5980
▁Sm	-5981
hapụ	-5982
ẹ̀yẹ	-5983
▁Ụmụ	-5984
emgbe	-5985
▁Moab	-5986
▁Open	-5987
▁daɗi	-5988
▁late	-5989
▁wise	-5990
▁Under	-5991
▁kanka	-5992
▁Steeti	-5993
▁twenty	-5994
▁kwesiri	-5995
▁followed	-5996
▁services	-5997
Not	-5998
ití	-5999
aràn	-6000
eren	-6001
▁Mid	-6002
▁div	-6003
▁yam	-6004
▁Ụlọ	-6005
▁Mike	-6006
▁blog	-6007
▁gobe	-6008
▁isii	-6009
▁lura	-6010
▁pápá	-6011
▁risk	-6012
▁Mutum	-6013
▁cover	-6014
▁exerc	-6015
▁multi	-6016
▁nìkan	-6017
▁púpọ̀	-6018
▁sanar	-6019
▁ẹ̀sìn	-6020
▁Casino	-6021
▁except	-6022
▁ƙarshe	-6023
▁Levites	-6024
▁láàárín	-6025
▁sakamak	-6026
▁various	-6027
sociation	-6028
▁azụmahịa	-6029
imi	-6030
▁(4	-6031
▁òǹ	-6032
▁yar	-6033
angba	-6034
leman	-6035
▁High	-6036
▁hana	-6037
▁sínú	-6038
People	-6039
ickets	-6040
lọ́gọ́	-6041
▁cewar	-6042
▁dream	-6043
▁àwùjọ	-6044
▁bought	-6045
▁damage	-6046
▁Ukraine	-6047
▁herself	-6048
▁inhabit	-6049
▁Football	-6050
Cl	-6051
alo	-6052
bụl	-6053
▁gy	-6054
obal	-6055
with	-6056
▁Alá	-6057
▁Ayé	-6058
▁PDP	-6059
▁fẹ̀	-6060
▁àtì	-6061
▁ìṣà	-6062
▁loss	-6063
▁text	-6064
▁Canada	-6065
▁fellow	-6066
▁content	-6067
▁shawara	-6068
▁trouble	-6069
▁onyeisiala	-6070
eje	-6071
▁Ez	-6072
▁Kw	-6073
▁bị	-6074
▁kà	-6075
kiah	-6076
reet	-6077
▁Met	-6078
▁Yeh	-6079
▁nji	-6080
▁pan	-6081
imate	-6082
ordin	-6083
▁Maka	-6084
▁Mart	-6085
▁bear	-6086
▁dára	-6087
▁mall	-6088
▁nemi	-6089
▁goals	-6090
▁samar	-6091
ocratic	-6092
▁adalci	-6093
▁expect	-6094
▁firist	-6095
▁overse	-6096
▁temple	-6097
▁lágbára	-6098
▁willing	-6099
▁specific	-6100
▁training	-6101
▁makaranta	-6102
▁profession	-6103
▁testosterone	-6104
gen	-6105
hia	-6106
ikún	-6107
isma	-6108
orob	-6109
room	-6110
▁Ibi	-6111
▁aren	-6112
▁buga	-6113
▁wane	-6114
▁zasu	-6115
▁alábò	-6116
▁calls	-6117
▁trial	-6118
▁wadda	-6119
▁ìyàwó	-6120
▁recent	-6121
▁relief	-6122
▁ìtọ́jú	-6123
▁Tuesday	-6124
▁recogni	-6125
▁nwekwara	-6126
▁prepared	-6127
▁ìgbàgbọ́	-6128
▁committed	-6129
▁bangaskiya	-6130
▁ìdàgbàsókè	-6131
.)	-6132
OD	-6133
Add	-6134
mit	-6135
nik	-6136
▁àá	-6137
ọdọ̀	-6138
▁Fal	-6139
▁okè	-6140
,000)	-6141
▁Ugbu	-6142
▁anan	-6143
▁anwụ	-6144
▁puta	-6145
▁type	-6146
merman	-6147
▁anger	-6148
▁elder	-6149
▁kanta	-6150
▁nkịta	-6151
▁storm	-6152
▁thine	-6153
▁Labake	-6154
▁Lẹ́yìn	-6155
▁ƙaunar	-6156
▁Kolibri	-6157
▁carried	-6158
▁presence	-6159
▁Indonesia	-6160
',	-6161
yen	-6162
▁Mb	-6163
fafa	-6164
▁hak	-6165
Since	-6166
aming	-6167
edebe	-6168
icles	-6169
ummai	-6170
▁buɗe	-6171
▁faɗi	-6172
▁kwụs	-6173
▁oche	-6174
▁seed	-6175
tified	-6176
▁dokok	-6177
▁fushi	-6178
▁heavy	-6179
▁imani	-6180
▁làwọn	-6181
▁natur	-6182
▁teach	-6183
▁ọmụmụ	-6184
▁Menene	-6185
▁abokan	-6186
▁gather	-6187
▁okporo	-6188
▁Onyeisi	-6189
▁picture	-6190
▁waiting	-6191
▁patients	-6192
azi	-6193
olf	-6194
wor	-6195
▁fā	-6196
lier	-6197
okes	-6198
▁iye	-6199
▁lal	-6200
▁oru	-6201
▁soy	-6202
▁wel	-6203
▁ọla	-6204
abiga	-6205
▁Wata	-6206
▁evid	-6207
▁kojú	-6208
▁omen	-6209
▁rage	-6210
▁wasa	-6211
ọnìyàn	-6212
▁2017,	-6213
▁Clash	-6214
▁fruit	-6215
▁fọwọ́	-6216
▁sanin	-6217
▁users	-6218
▁prophe	-6219
▁àgbáyé	-6220
▁treatment	-6221
7,	-6222
pọ	-6223
.22	-6224
eke	-6225
ọnụ	-6226
▁Ay	-6227
▁Bo	-6228
▁Nj	-6229
▁Od	-6230
▁Us	-6231
lied	-6232
▁kwe	-6233
▁mir	-6234
▁njọ	-6235
▁rag	-6236
▁rat	-6237
cious	-6238
▁nawa	-6239
▁koyar	-6240
▁shida	-6241
▁tsaye	-6242
▁yaushe	-6243
▁Service	-6244
▁matsala	-6245
▁Thursday	-6246
▁increase	-6247
▁olileanya	-6248
▁thousands	-6249
▁Christians	-6250
wí	-6251
arc	-6252
hem	-6253
iyi	-6254
lam	-6255
omb	-6256
rem	-6257
▁(6	-6258
zuzo	-6259
▁Bia	-6260
▁ark	-6261
▁elé	-6262
▁2014	-6263
▁jira	-6264
▁lose	-6265
▁rejo	-6266
▁tele	-6267
ftisma	-6268
▁Aaron	-6269
▁nìyẹn	-6270
▁tempt	-6271
▁device	-6272
▁ndikom	-6273
▁prayers	-6274
▁tradition	-6275
▁difference	-6276
0.	-6277
9,	-6278
amba	-6279
úmọ̀	-6280
▁Mul	-6281
▁aut	-6282
▁fre	-6283
▁hun	-6284
ector	-6285
fihàn	-6286
▁ndia	-6287
▁zaka	-6288
estern	-6289
▁plant	-6290
▁Sowore	-6291
▁charac	-6292
▁General	-6293
▁powerful	-6294
▁alábòójútó	-6295
▁muhimmanci	-6296
tẹ	-6297
See	-6298
ris	-6299
gbẹ̀	-6300
kọwa	-6301
lógó	-6302
miah	-6303
vere	-6304
zara	-6305
▁bọ́	-6306
▁cal	-6307
▁fas	-6308
▁haɗ	-6309
▁hik	-6310
aught	-6311
▁Jeho	-6312
▁Just	-6313
▁Black	-6314
▁achie	-6315
▁bapti	-6316
▁gaghị	-6317
▁soldi	-6318
▁attend	-6319
▁circum	-6320
▁indust	-6321
▁points	-6322
▁Supreme	-6323
▁experim	-6324
▁alkawari	-6325
▁ministry	-6326
▁speaking	-6327
▁organization	-6328
5,	-6329
.23	-6330
arm	-6331
eal	-6332
ède	-6333
▁1:	-6334
▁IP	-6335
▁Mer	-6336
▁maƙ	-6337
Today	-6338
ancin	-6339
▁Brit	-6340
▁Tana	-6341
▁fail	-6342
▁narị	-6343
▁nwee	-6344
uwansa	-6345
▁brown	-6346
▁mayar	-6347
▁orúkọ	-6348
▁spoke	-6349
▁staff	-6350
▁Yahaya	-6351
▁impact	-6352
▁changed	-6353
▁quickly	-6354
▁Mohammed	-6355
▁resources	-6356
gá	-6357
gē	-6358
ayò	-6359
▁Mi	-6360
icks	-6361
like	-6362
ping	-6363
▁Neb	-6364
▁hit	-6365
▁ogb	-6366
▁rah	-6367
▁wàá	-6368
▁ƙas	-6369
▁basu	-6370
▁clot	-6371
▁enga	-6372
zerbai	-6373
▁Georg	-6374
▁appre	-6375
▁nkịtị	-6376
▁caught	-6377
▁choice	-6378
▁select	-6379
▁tsarin	-6380
▁improve	-6381
▁Abubakar	-6382
▁Translation	-6383
▁immediately	-6384
▁understanding	-6385
há	-6386
jù	-6387
,""	-6388
.25	-6389
Yes	-6390
von	-6391
ọzi	-6392
▁dọ	-6393
▁iyi	-6394
▁ẹnu	-6395
▁ọnu	-6396
kànṣe	-6397
▁nufi	-6398
▁sojo	-6399
uliaka	-6400
▁maọbụ	-6401
▁àsìkò	-6402
▁determ	-6403
▁weight	-6404
▁convict	-6405
▁display	-6406
▁fahimci	-6407
▁lẹ́wọ̀n	-6408
▁matattu	-6409
▁percent	-6410
▁towards	-6411
▁àǹfààní	-6412
▁convention	-6413
8,	-6414
ayé	-6415
een	-6416
ọdé	-6417
▁yé	-6418
atun	-6419
▁Tan	-6420
▁etu	-6421
▁pet	-6422
▁pín	-6423
▁sir	-6424
utere	-6425
▁aláì	-6426
▁sāke	-6427
▁àgwà	-6428
▁ìgwè	-6429
▁tatta	-6430
▁Script	-6431
▁Android	-6432
▁ayyukan	-6433
▁ƙoƙarin	-6434
ederation	-6435
▁promised	-6436
▁Zimmerman	-6437
▁authority	-6438
▁religious	-6439
▁salvation	-6440
▁ìfigagbága	-6441
7)	-6442
▁UK	-6443
▁ọb	-6444
anga	-6445
face	-6446
ille	-6447
mahụ	-6448
yond	-6449
▁Air	-6450
▁fọd	-6451
▁hat	-6452
▁ịrị	-6453
ances	-6454
tific	-6455
ument	-6456
▁jùlọ	-6457
▁mach	-6458
ichael	-6459
▁Congo	-6460
▁corru	-6461
▁kasar	-6462
chester	-6463
ecution	-6464
▁gosiri	-6465
▁remind	-6466
▁Francis	-6467
▁digital	-6468
▁possess	-6469
▁Adúláwọ̀	-6470
▁hospital	-6471
zy	-6472
ino	-6473
ƙon	-6474
▁ir	-6475
▁tà	-6476
Have	-6477
ache	-6478
arai	-6479
arth	-6480
aton	-6481
eṣẹ́	-6482
nchu	-6483
▁Arg	-6484
▁Top	-6485
▁Why	-6486
▁bid	-6487
▁tur	-6488
▁ọṅụ	-6489
asons	-6490
ethod	-6491
press	-6492
▁huɗu	-6493
▁rose	-6494
▁shut	-6495
▁tari	-6496
▁daina	-6497
▁ndọrọ	-6498
▁weeks	-6499
artment	-6500
▁Gbogbo	-6501
▁Orílẹ̀	-6502
▁eleghị	-6503
▁identi	-6504
▁inweta	-6505
▁pretty	-6506
▁collect	-6507
▁promise	-6508
▁evidence	-6509
▁previous	-6510
AT	-6511
ca	-6512
dù	-6513
NEC	-6514
bre	-6515
ikw	-6516
fill	-6517
ming	-6518
òrùn	-6519
▁eye	-6520
▁nti	-6521
▁pas	-6522
alley	-6523
rántí	-6524
▁Read	-6525
▁clai	-6526
▁líle	-6527
▁ìṣẹ́	-6528
urance	-6529
▁amara	-6530
▁sense	-6531
▁ìdílé	-6532
▁ọ̀tọ̀	-6533
▁damuwa	-6534
▁recomm	-6535
▁gaskata	-6536
▁justice	-6537
▁reading	-6538
▁ọ̀daràn	-6539
▁Jeroboam	-6540
▁sometimes	-6541
▁inhabitants	-6542
haz	-6543
ọma	-6544
biri	-6545
ekwe	-6546
kejì	-6547
lujá	-6548
salm	-6549
then	-6550
▁ing	-6551
▁iso	-6552
▁lee	-6553
▁yun	-6554
athan	-6555
▁fans	-6556
▁glad	-6557
▁mass	-6558
▁meat	-6559
▁obey	-6560
▁ƙona	-6561
astern	-6562
▁album	-6563
▁aṣojú	-6564
▁kadai	-6565
▁terms	-6566
▁mobile	-6567
▁speech	-6568
Although	-6569
Everyone	-6570
▁Windows	-6571
▁confess	-6572
▁forward	-6573
▁activity	-6574
▁involved	-6575
▁continued	-6576
IN	-6577
ọs	-6578
alá	-6579
iyu	-6580
kiy	-6581
odi	-6582
▁ịm	-6583
care	-6584
rief	-6585
ring	-6586
tery	-6587
ushi	-6588
▁ọha	-6589
ender	-6590
oring	-6591
▁Bish	-6592
▁mkpu	-6593
▁baƙin	-6594
▁ekele	-6595
▁ngosi	-6596
▁commit	-6597
▁mọ́kàn	-6598
▁tinyere	-6599
▁ntuliaka	-6600
John	-6601
adan	-6602
akan	-6603
ends	-6604
rayá	-6605
ṣèlú	-6606
▁Aka	-6607
▁Oló	-6608
▁eru	-6609
▁kal	-6610
▁oji	-6611
▁olu	-6612
▁Char	-6613
▁dece	-6614
▁feat	-6615
▁shew	-6616
▁till	-6617
▁bikin	-6618
▁liter	-6619
▁oriri	-6620
▁ɗauke	-6621
▁Mutane	-6622
▁histor	-6623
▁seeing	-6624
▁ìbílẹ̀	-6625
▁Azerbai	-6626
▁conduct	-6627
▁ekwentị	-6628
dú	-6629
gal	-6630
ades	-6631
akpa	-6632
bang	-6633
bata	-6634
iles	-6635
itch	-6636
osen	-6637
▁Job	-6638
▁fal	-6639
▁mel	-6640
▁sla	-6641
▁sug	-6642
▁akwụ	-6643
▁jụrụ	-6644
▁méje	-6645
▁opin	-6646
▁vill	-6647
▁owner	-6648
▁síbẹ̀	-6649
▁tinye	-6650
▁train	-6651
▁Ọ̀rọ̀	-6652
▁German	-6653
▁Yusufu	-6654
▁action	-6655
▁doctor	-6656
▁nkwado	-6657
▁sacrific	-6658
IV	-6659
ƙo	-6660
inn	-6661
▁45	-6662
▁Lọ	-6663
▁Mm	-6664
Also	-6665
mụta	-6666
orry	-6667
▁Mak	-6668
▁Ojú	-6669
Those	-6670
yansa	-6671
▁Gile	-6672
▁adop	-6673
▁fari	-6674
▁hate	-6675
▁join	-6676
▁Ghari	-6677
▁egosi	-6678
▁hosts	-6679
▁initi	-6680
▁breast	-6681
▁desire	-6682
▁kemgbe	-6683
▁sports	-6684
▁biyayya	-6685
▁despite	-6686
▁hukunci	-6687
▁kyakkya	-6688
▁okwukwe	-6689
▁persons	-6690
▁sẹ́wọ̀n	-6691
▁expected	-6692
▁progress	-6693
▁ụmụnwaanyị	-6694
▁individuals	-6695
dọ́	-6696
ery	-6697
ẹni	-6698
▁Az	-6699
▁Sy	-6700
uted	-6701
wise	-6702
▁ịma	-6703
mọ́lé	-6704
nific	-6705
rẹ̀ẹ́	-6706
▁Park	-6707
▁anti	-6708
▁egbu	-6709
▁fish	-6710
▁sílé	-6711
▁cloth	-6712
▁daily	-6713
▁haven	-6714
▁mmanụ	-6715
▁store	-6716
▁ẹ̀sùn	-6717
▁thirty	-6718
lọ́gbọ̀n	-6719
▁distrib	-6720
▁located	-6721
▁languages	-6722
AS	-6723
ọm	-6724
fai	-6725
yle	-6726
àrà	-6727
▁fà	-6728
▁fí	-6729
▁Ṣè	-6730
▁ẹ́	-6731
ehov	-6732
▁cat	-6733
▁esc	-6734
▁tan	-6735
antly	-6736
chara	-6737
▁canc	-6738
▁hang	-6739
erence	-6740
gbochi	-6741
ụbọchị	-6742
▁Isaac	-6743
▁Union	-6744
▁ahead	-6745
▁ebubo	-6746
▁fitar	-6747
▁nzukọ	-6748
▁stone	-6749
▁repent	-6750
▁blessed	-6751
▁hearing	-6752
▁economic	-6753
▁learning	-6754
▁Champions	-6755
gg	-6756
▁cy	-6757
amai	-6758
ijin	-6759
▁Eph	-6760
▁wid	-6761
Jehov	-6762
rogen	-6763
yẹ̀wò	-6764
▁Cana	-6765
▁beha	-6766
▁gate	-6767
▁hair	-6768
▁kiss	-6769
▁lack	-6770
▁nēme	-6771
▁daɗin	-6772
▁grant	-6773
▁influ	-6774
▁àyíká	-6775
▁ịkọrọ	-6776
▁Church	-6777
▁Madrid	-6778
▁Portug	-6779
▁babbar	-6780
▁eating	-6781
▁àtúnṣe	-6782
▁ƙwarai	-6783
▁mention	-6784
▁njikere	-6785
▁audience	-6786
▁Argentina	-6787
12	-6788
Ma	-6789
pà	-6790
inú	-6791
oph	-6792
▁Bó	-6793
alys	-6794
asha	-6795
ilẹ̀	-6796
▁Akp	-6797
▁Kad	-6798
▁cru	-6799
▁ome	-6800
fying	-6801
▁Swed	-6802
▁link	-6803
▁rock	-6804
▁ẹ̀mí	-6805
lished	-6806
lujára	-6807
lógójì	-6808
▁coach	-6809
▁forgi	-6810
▁moved	-6811
▁satis	-6812
▁letter	-6813
▁manner	-6814
▁anyanwụ	-6815
▁enemies	-6816
▁greater	-6817
▁mamakin	-6818
▁revealed	-6819
);	-6820
KW	-6821
OB	-6822
Rep	-6823
▁By	-6824
▁Di	-6825
▁họ	-6826
enyo	-6827
zech	-6828
▁Abi	-6829
▁Agb	-6830
▁Ezi	-6831
▁Lọ́	-6832
▁Sal	-6833
▁ubọ	-6834
aries	-6835
▁gode	-6836
▁huge	-6837
▁ogun	-6838
▁port	-6839
▁kidna	-6840
▁mmekọ	-6841
▁named	-6842
▁tells	-6843
▁(2015)	-6844
▁Please	-6845
▁licens	-6846
▁Suleman	-6847
▁eternal	-6848
▁journey	-6849
▁shouldn	-6850
▁accident	-6851
▁recently	-6852
▁necessary	-6853
▁strengthen	-6854
19	-6855
gue	-6856
▁ca	-6857
▁rụ	-6858
▁Mos	-6859
▁Sin	-6860
▁Umu	-6861
▁inn	-6862
▁neg	-6863
▁tuk	-6864
jects	-6865
kacin	-6866
▁gari	-6867
▁shot	-6868
▁Àgbá	-6869
ground	-6870
orobịa	-6871
▁color	-6872
▁sauri	-6873
▁asking	-6874
▁battle	-6875
▁beyond	-6876
▁faruwa	-6877
▁higher	-6878
▁policy	-6879
▁citizens	-6880
▁faithful	-6881
indonesiano	-6882
▁righteousness	-6883
Ab	-6884
jè	-6885
mẹ́	-6886
pes	-6887
▁dā	-6888
▁wó	-6889
eton	-6890
ikan	-6891
▁Dem	-6892
▁kẹ́	-6893
▁opt	-6894
rible	-6895
▁Mess	-6896
▁Nnam	-6897
▁Test	-6898
▁Trip	-6899
▁Will	-6900
▁foto	-6901
▁juya	-6902
debele	-6903
ourage	-6904
▁Brown	-6905
▁kusan	-6906
▁káwọn	-6907
▁maima	-6908
▁touch	-6909
Jehovah	-6910
▁Farans	-6911
▁gbọdọ̀	-6912
▁method	-6913
▁strugg	-6914
▁ṣàlàyé	-6915
▁Michael	-6916
▁Ndebele	-6917
▁ahụmahụ	-6918
▁akwatin	-6919
▁ọlọ́pàá	-6920
▁Sulemanu	-6921
▁provided	-6922
▁technology	-6923
Un	-6924
if	-6925
arr	-6926
edi	-6927
kòó	-6928
▁bọ	-6929
▁yá	-6930
▁àà	-6931
empt	-6932
▁gbè	-6933
▁idi	-6934
▁ign	-6935
▁iru	-6936
▁rid	-6937
▁Èkó	-6938
ednes	-6939
irgin	-6940
ories	-6941
▁Ogun	-6942
▁asaa	-6943
▁chap	-6944
▁conc	-6945
▁fift	-6946
ancial	-6947
asures	-6948
imọ̀ọ́	-6949
▁Czech	-6950
olution	-6951
▁amount	-6952
▁events	-6953
▁introd	-6954
▁island	-6955
▁leader	-6956
▁tennis	-6957
▁tsawon	-6958
▁unique	-6959
▁amazing	-6960
▁exactly	-6961
▁Allahnku	-6962
▁kasancewa	-6963
jó	-6964
nọ	-6965
00)	-6966
ahi	-6967
gon	-6968
udd	-6969
ọnd	-6970
iken	-6971
▁197	-6972
▁Igb	-6973
▁gen	-6974
▁mbọ	-6975
▁ntọ	-6976
▁ìwò	-6977
earch	-6978
▁Wasu	-6979
▁bord	-6980
▁jiya	-6981
▁karị	-6982
▁kéré	-6983
▁saba	-6984
▁skin	-6985
▁stri	-6986
French	-6987
utions	-6988
▁Irish	-6989
▁alama	-6990
▁reign	-6991
▁space	-6992
▁value	-6993
ungiyar	-6994
▁filled	-6995
▁houses	-6996
▁ìbéèrè	-6997
ednesday	-6998
▁appreci	-6999
▁mahadum	-7000
▁Manchester	-7001
ria	-7002
uma	-7003
Last	-7004
amas	-7005
icci	-7006
ivil	-7007
oker	-7008
▁box	-7009
▁hol	-7010
▁ule	-7011
▁àṣe	-7012
obody	-7013
▁emot	-7014
▁lies	-7015
▁Adamu	-7016
▁Enugu	-7017
▁drive	-7018
▁karya	-7019
▁medic	-7020
▁Canaan	-7021
▁dariya	-7022
▁design	-7023
▁gọvanọ	-7024
▁kallon	-7025
▁street	-7026
▁tashin	-7027
▁knowing	-7028
▁tambayi	-7029
▁includes	-7030
pè	-7031
add	-7032
str	-7033
ule	-7034
via	-7035
ịka	-7036
▁AS	-7037
▁lu	-7038
zuzu	-7039
▁Ozi	-7040
▁fol	-7041
▁tat	-7042
▁bare	-7043
▁lawy	-7044
▁nchị	-7045
▁path	-7046
▁pụta	-7047
▁saka	-7048
▁inyom	-7049
▁engine	-7050
▁invest	-7051
▁itinye	-7052
▁kọ́kọ́	-7053
▁changes	-7054
▁entered	-7055
▁victory	-7056
itionally	-7057
▁gọọmenti	-7058
-0	-7059
ṅu	-7060
▁Gl	-7061
erer	-7062
orin	-7063
▁Olù	-7064
▁Uba	-7065
▁mes	-7066
▁uwa	-7067
▁2012	-7068
▁Ikpe	-7069
▁dogs	-7070
▁kpam	-7071
▁lord	-7072
▁paid	-7073
▁shig	-7074
yright	-7075
▁2018.	-7076
▁Group	-7077
▁Halls	-7078
▁agree	-7079
▁ajiye	-7080
▁check	-7081
▁marry	-7082
▁meant	-7083
▁ìṣeré	-7084
▁Review	-7085
▁sevent	-7086
▁Georgia	-7087
▁Muslims	-7088
▁anymore	-7089
▁require	-7090
▁Waɗannan	-7091
▁danganta	-7092
▁prophets	-7093
▁teaching	-7094
.26	-7095
aso	-7096
kwo	-7097
▁Ọm	-7098
anks	-7099
ilty	-7100
isan	-7101
onse	-7102
▁bow	-7103
▁gon	-7104
umber	-7105
viron	-7106
▁Dire	-7107
▁Slov	-7108
▁Tray	-7109
▁Yaya	-7110
▁amin	-7111
▁fine	-7112
▁hurt	-7113
overed	-7114
▁Elect	-7115
▁Gbara	-7116
▁award	-7117
▁dakin	-7118
▁laugh	-7119
▁south	-7120
▁title	-7121
▁trees	-7122
▁ìlànà	-7123
▁Hebron	-7124
▁Public	-7125
▁dating	-7126
▁demand	-7127
▁matters	-7128
▁natural	-7129
▁soyayya	-7130
▁ọkùnrin	-7131
▁imprison	-7132
ò̩	-7133
.”—	-7134
ako	-7135
fra	-7136
àrá	-7137
▁Oh	-7138
▁Tá	-7139
cies	-7140
itan	-7141
▁Den	-7142
▁GOD	-7143
▁Int	-7144
arịta	-7145
ively	-7146
▁Coun	-7147
▁komo	-7148
▁puku	-7149
▁Satan	-7150
▁books	-7151
▁dwelt	-7152
▁kuɗin	-7153
▁ìpinnu	-7154
▁Onyenwe	-7155
▁partner	-7156
▁ìdánimọ̀	-7157
▁ọkachamara	-7158
14	-7159
unk	-7160
mọdụ	-7161
omas	-7162
roat	-7163
▁196	-7164
▁Gib	-7165
▁eth	-7166
▁oku	-7167
aling	-7168
ocked	-7169
oming	-7170
otten	-7171
verse	-7172
▁Kano	-7173
▁bamb	-7174
▁gaji	-7175
▁mumm	-7176
▁bịara	-7177
▁email	-7178
▁haifi	-7179
▁purch	-7180
▁sites	-7181
▁advice	-7182
▁mulkin	-7183
▁British	-7184
▁Trayvon	-7185
▁journal	-7186
▁stopped	-7187
▁ịgbanwe	-7188
President	-7189
▁Ọ̀gbẹ́ni	-7190
▁daughters	-7191
▁detention	-7192
▁expressed	-7193
dùn	-7194
fíà	-7195
nne	-7196
Èdè	-7197
ụba	-7198
▁(5	-7199
▁hy	-7200
▁ṣo	-7201
Here	-7202
obin	-7203
road	-7204
time	-7205
▁Per	-7206
▁Roh	-7207
▁apá	-7208
▁ghọ	-7209
▁ibù	-7210
▁rap	-7211
▁ren	-7212
▁uzọ	-7213
Press	-7214
ppers	-7215
usion	-7216
▁Haka	-7217
▁Mark	-7218
▁Turk	-7219
▁akpụ	-7220
▁girm	-7221
▁látà	-7222
asting	-7223
idence	-7224
▁defin	-7225
▁musul	-7226
▁obibi	-7227
▁super	-7228
eremiah	-7229
imately	-7230
láàádọ́	-7231
sụgharị	-7232
▁fuskan	-7233
▁Ekwerem	-7234
▁omenala	-7235
▁running	-7236
▁òmìnira	-7237
▁Congress	-7238
▁announced	-7239
▁Azerbaijan	-7240
22	-7241
7.	-7242
By	-7243
.24	-7244
abe	-7245
aps	-7246
mas	-7247
who	-7248
zon	-7249
ṣin	-7250
▁60	-7251
▁òf	-7252
abor	-7253
onye	-7254
unch	-7255
▁Reg	-7256
▁doc	-7257
▁reb	-7258
▁usu	-7259
▁Ìjì	-7260
arant	-7261
daban	-7262
fẹ̀ẹ́	-7263
kunan	-7264
ropri	-7265
▁Asia	-7266
▁Tool	-7267
▁ekpe	-7268
▁mụrụ	-7269
During	-7270
alysis	-7271
asanjo	-7272
▁alive	-7273
▁brain	-7274
▁organ	-7275
▁reach	-7276
▁uncle	-7277
▁Senate	-7278
▁disapp	-7279
Cameroon	-7280
▁bincike	-7281
▁meaning	-7282
▁minister	-7283
▁offerings	-7284
▁interested	-7285
▁ọ̀pọ̀lọpọ̀	-7286
PS	-7287
dọ	-7288
ayy	-7289
oes	-7290
▁2,	-7291
Does	-7292
Look	-7293
auna	-7294
▁Eke	-7295
▁agụ	-7296
▁bia	-7297
▁ife	-7298
▁nga	-7299
▁zuk	-7300
aight	-7301
arian	-7302
iring	-7303
itrus	-7304
▁Iṣẹ́	-7305
▁Kana	-7306
▁Kowa	-7307
▁Slav	-7308
▁coll	-7309
▁fled	-7310
▁helps	-7311
▁pound	-7312
▁sheep	-7313
▁track	-7314
▁verse	-7315
elekọta	-7316
▁compla	-7317
▁ekwesị	-7318
▁honest	-7319
▁karshe	-7320
▁ozugbo	-7321
▁fulfill	-7322
imọ̀ọ́gbá	-7323
▁mountain	-7324
▁physical	-7325
▁Transposh	-7326
▁mgbakwunye	-7327
AM	-7328
HE	-7329
Sa	-7330
law	-7331
▁38	-7332
▁ID	-7333
▁Yi	-7334
▁tè	-7335
From	-7336
ọmpi	-7337
ọrùn	-7338
▁Lib	-7339
▁Que	-7340
▁etc	-7341
▁fim	-7342
elief	-7343
òótọ́	-7344
▁cred	-7345
▁foot	-7346
▁gets	-7347
▁laws	-7348
▁tako	-7349
▁ịkpọ	-7350
▁ọkpụ	-7351
ashing	-7352
▁Dakar	-7353
▁Santa	-7354
▁These	-7355
▁asatọ	-7356
▁rants	-7357
▁tilẹ̀	-7358
▁inform	-7359
▁showed	-7360
▁tambay	-7361
▁ubọchi	-7362
▁Akwụkwọ	-7363
▁becomes	-7364
▁quality	-7365
▁zunuban	-7366
▁Northern	-7367
▁enyemaka	-7368
▁internet	-7369
▁inheritance	-7370
KWU	-7371
edo	-7372
loy	-7373
rẹ̀	-7374
▁Jù	-7375
▁ge	-7376
▁il	-7377
vior	-7378
▁Asa	-7379
▁Ham	-7380
▁cam	-7381
▁gbí	-7382
▁ikp	-7383
▁ikw	-7384
▁sud	-7385
▁zar	-7386
tagbà	-7387
▁East	-7388
▁Gíga	-7389
▁Prof	-7390
▁Prov	-7391
▁baba	-7392
▁binc	-7393
▁fool	-7394
▁uses	-7395
▁yàrá	-7396
ayayya	-7397
▁Paris	-7398
▁minor	-7399
▁naira	-7400
▁sanda	-7401
ecutive	-7402
itation	-7403
▁consum	-7404
▁effort	-7405
▁forest	-7406
▁worked	-7407
▁àpẹẹrẹ	-7408
▁Italian	-7409
▁forever	-7410
▁teacher	-7411
▁appeared	-7412
▁planning	-7413
▁property	-7414
▁zinariya	-7415
▁communities	-7416
AC	-7417
bl	-7418
ees	-7419
mak	-7420
val	-7421
▁39	-7422
▁ṣa	-7423
Only	-7424
jada	-7425
unte	-7426
woke	-7427
▁ehi	-7428
▁fif	-7429
▁nkà	-7430
rabíà	-7431
▁Egwu	-7432
▁akọ̀	-7433
▁dand	-7434
▁rule	-7435
▁surv	-7436
▁taka	-7437
▁wood	-7438
▁zata	-7439
▁Simon	-7440
▁Wanda	-7441
▁haske	-7442
▁polit	-7443
▁throw	-7444
▁tsamm	-7445
▁umarn	-7446
▁ọ̀dọ́	-7447
▁mẹ́wàá	-7448
▁Persian	-7449
▁ɗaukaka	-7450
▁baftisma	-7451
▁departed	-7452
3,	-7453
Dan	-7454
acu	-7455
ghụ	-7456
kal	-7457
lar	-7458
oki	-7459
oye	-7460
ufe	-7461
urú	-7462
▁Ìṣ	-7463
adáa	-7464
darí	-7465
gara	-7466
ocks	-7467
razy	-7468
ịbụl	-7469
▁Ars	-7470
▁Dal	-7471
▁Fún	-7472
▁ton	-7473
▁vot	-7474
aches	-7475
ander	-7476
▁baka	-7477
▁mill	-7478
▁ìfẹ́	-7479
▁Ghana	-7480
▁Green	-7481
▁bacci	-7482
▁bilie	-7483
▁karfi	-7484
▁proud	-7485
▁quali	-7486
▁shari	-7487
▁yunwa	-7488
lélógún	-7489
▁Slavic	-7490
▁couple	-7491
▁excell	-7492
▁kewaye	-7493
▁nweghị	-7494
▁clothes	-7495
▁harshen	-7496
▁tambaya	-7497
▁Ubangijin	-7498
▁described	-7499
30	-7500
:5	-7501
Le	-7502
ṣo	-7503
▁Aw	-7504
▁Wá	-7505
▁bẹ	-7506
apọ̀	-7507
awan	-7508
iria	-7509
irik	-7510
quer	-7511
▁Gad	-7512
▁Reh	-7513
▁asị	-7514
▁bal	-7515
▁rìn	-7516
▁rọ̀	-7517
▁ṣeé	-7518
onian	-7519
▁Sams	-7520
▁bójú	-7521
▁gbẹ́	-7522
▁kárí	-7523
▁Trump	-7524
▁angry	-7525
▁doubt	-7526
▁gyara	-7527
▁heads	-7528
▁mmepe	-7529
▁spent	-7530
▁Ọ̀pọ̀	-7531
akwukwọ	-7532
▁button	-7533
▁candid	-7534
▁dutsen	-7535
▁guilty	-7536
▁hikima	-7537
▁laifin	-7538
▁oghere	-7539
▁region	-7540
▁served	-7541
▁testim	-7542
▁ụkpụrụ	-7543
▁mberede	-7544
▁sakamakon	-7545
Additionally	-7546
Da	-7547
Yan	-7548
dun	-7549
iff	-7550
▁6,	-7551
▁Rw	-7552
▁wú	-7553
apot	-7554
lymp	-7555
sequ	-7556
▁2:1	-7557
▁Atụ	-7558
▁pàá	-7559
▁ịrụ	-7560
elled	-7561
igara	-7562
itain	-7563
▁Uche	-7564
▁ears	-7565
▁ilim	-7566
▁rise	-7567
apotec	-7568
gharịa	-7569
orocha	-7570
▁Games	-7571
▁Olymp	-7572
▁Samar	-7573
▁drugs	-7574
▁nzuzo	-7575
▁sayar	-7576
▁Martin	-7577
▁chosen	-7578
▁effect	-7579
▁master	-7580
▁shirye	-7581
▁foreign	-7582
▁refused	-7583
▁remains	-7584
▁sharing	-7585
▁Guardian	-7586
▁Internet	-7587
▁download	-7588
▁soldiers	-7589
▁straight	-7590
IP	-7591
Ina	-7592
aww	-7593
mil	-7594
yel	-7595
akes	-7596
egbu	-7597
elve	-7598
hálà	-7599
resp	-7600
wood	-7601
▁Kog	-7602
▁fan	-7603
▁leè	-7604
▁àyè	-7605
▁ịnọ	-7606
akuku	-7607
▁Eche	-7608
▁bani	-7609
▁chọọ	-7610
▁scri	-7611
▁slow	-7612
▁ƙafa	-7613
ghụghọ	-7614
▁Party	-7615
▁enemy	-7616
▁nkume	-7617
ocation	-7618
rabíàṣá	-7619
▁Baịbụl	-7620
▁dáadáa	-7621
▁instit	-7622
▁latest	-7623
▁sudden	-7624
▁àpapọ̀	-7625
▁learned	-7626
▁request	-7627
▁thoughts	-7628
▁tsammani	-7629
▁permission	-7630
▁commandments	-7631
?'	-7632
Ot	-7633
atl	-7634
nya	-7635
sịa	-7636
ṣir	-7637
erse	-7638
mala	-7639
ongo	-7640
unar	-7641
▁Mme	-7642
▁ach	-7643
▁flo	-7644
▁kil	-7645
▁nzọ	-7646
▁wed	-7647
light	-7648
owers	-7649
▁fing	-7650
▁gang	-7651
▁shar	-7652
▁tuba	-7653
▁warn	-7654
▁ụgha	-7655
abolic	-7656
▁Bẹ́ẹ̀	-7657
▁bayar	-7658
▁garin	-7659
▁movie	-7660
▁ẹ̀jẹ̀	-7661
▁Obiano	-7662
▁sujada	-7663
▁walked	-7664
onwealth	-7665
▁Ephraim	-7666
▁Stadium	-7667
▁researc	-7668
▁taimako	-7669
▁visited	-7670
▁baptized	-7671
▁sentence	-7672
▁tattauna	-7673
ọ́nimọ̀ọ́gbá	-7674
-5	-7675
Pl	-7676
Well	-7677
ello	-7678
onia	-7679
▁ikú	-7680
Filed	-7681
akụkọ	-7682
ashen	-7683
gency	-7684
▁Sing	-7685
▁army	-7686
▁gard	-7687
▁guzo	-7688
▁rayu	-7689
▁sees	-7690
Christ	-7691
▁kanmu	-7692
▁kirki	-7693
▁resur	-7694
▁rántí	-7695
▁tired	-7696
▁wrath	-7697
akọrịta	-7698
ntanetị	-7699
▁Nítorí	-7700
▁alheri	-7701
▁girmama	-7702
▁network	-7703
▁prepare	-7704
▁taimake	-7705
vironment	-7706
▁suffering	-7707
▁considered	-7708
▁performance	-7709
é̩	-7710
nke	-7711
rai	-7712
raw	-7713
zak	-7714
íni	-7715
ọku	-7716
▁43	-7717
▁Kó	-7718
akwụ	-7719
ando	-7720
lies	-7721
rial	-7722
▁guz	-7723
▁ire	-7724
▁Bill	-7725
▁Rohr	-7726
▁Vict	-7727
▁disp	-7728
▁doct	-7729
▁tura	-7730
▁ugbo	-7731
▁zaɓi	-7732
▁Thail	-7733
▁Yàtọ̀	-7734
▁alfar	-7735
▁gifts	-7736
▁mmụta	-7737
▁stage	-7738
▁budget	-7739
▁ƙarfin	-7740
▁Council	-7741
▁devices	-7742
▁suggest	-7743
▁Thailand	-7744
▁industry	-7745
▁resident	-7746
▁confident	-7747
▁increased	-7748
US	-7749
io	-7750
pó	-7751
té	-7752
antu	-7753
aven	-7754
vour	-7755
ádìí	-7756
ỤKWU	-7757
▁Her	-7758
▁Mel	-7759
▁Mil	-7760
▁Red	-7761
▁fur	-7762
▁log	-7763
▁mbu	-7764
▁ruh	-7765
▁ràn	-7766
▁ubi	-7767
▁web	-7768
asion	-7769
atory	-7770
ghach	-7771
▁Bank	-7772
▁Prog	-7773
▁acts	-7774
▁matu	-7775
▁rate	-7776
▁Ọdún	-7777
agụnye	-7778
castle	-7779
▁Dukan	-7780
▁Sarki	-7781
▁Women	-7782
▁cried	-7783
▁matar	-7784
chọpụta	-7785
▁belief	-7786
▁mẹ́rìn	-7787
▁remove	-7788
▁simple	-7789
▁thanks	-7790
▁Eastern	-7791
▁princes	-7792
Indonesia	-7793
▁maimakon	-7794
▁positive	-7795
▁tsakiyar	-7796
▁tẹ̀síwájú	-7797
!”	-7798
16	-7799
Ga	-7800
sá	-7801
.27	-7802
ext	-7803
uge	-7804
▁3,	-7805
▁Il	-7806
inka	-7807
rírí	-7808
uses	-7809
▁Jim	-7810
▁Pen	-7811
▁ain	-7812
▁upd	-7813
alled	-7814
ental	-7815
▁Kanu	-7816
▁duhu	-7817
▁prim	-7818
▁soro	-7819
orters	-7820
▁Earth	-7821
▁Shari	-7822
▁Yawan	-7823
▁recon	-7824
▁wàásù	-7825
▁àmúlò	-7826
▁Biafra	-7827
▁Gilead	-7828
▁Haruna	-7829
▁Island	-7830
▁Police	-7831
▁groups	-7832
▁kọwara	-7833
▁látàrí	-7834
▁settle	-7835
▁target	-7836
▁Gaskiya	-7837
▁animals	-7838
▁contrib	-7839
▁kalmomi	-7840
▁kammala	-7841
▁kwanaki	-7842
▁reality	-7843
▁reasons	-7844
▁regular	-7845
▁Assembly	-7846
▁metụtara	-7847
▁standing	-7848
▁commandment	-7849
▁interesting	-7850
En	-7851
RE	-7852
▁ej	-7853
acen	-7854
dánù	-7855
iced	-7856
pele	-7857
▁1:1	-7858
▁Tai	-7859
▁dáa	-7860
▁ụba	-7861
eless	-7862
▁abẹ́	-7863
▁east	-7864
▁pátá	-7865
▁wear	-7866
▁ọgba	-7867
ulture	-7868
▁apost	-7869
▁below	-7870
▁breat	-7871
▁rọrùn	-7872
▁yaron	-7873
▁Poland	-7874
▁farkon	-7875
▁strang	-7876
▁taught	-7877
▁twelve	-7878
▁àkànṣe	-7879
▁ụlọọrụ	-7880
ological	-7881
▁Britain	-7882
▁evening	-7883
▁iléeṣẹ́	-7884
▁mmalite	-7885
▁nyochaa	-7886
Therefore	-7887
▁exercise	-7888
▁finished	-7889
▁religion	-7890
▁character	-7891
▁tsuntsaye	-7892
▁additional	-7893
AD	-7894
Pr	-7895
rd	-7896
óò	-7897
èjì	-7898
▁Cy	-7899
alog	-7900
emic	-7901
nant	-7902
▁Nna	-7903
▁ajọ	-7904
▁bẹ̀	-7905
▁dad	-7906
▁haƙ	-7907
▁mug	-7908
essor	-7909
farta	-7910
▁jefa	-7911
▁mult	-7912
▁palm	-7913
▁sens	-7914
▁suit	-7915
▁teku	-7916
▁balẹ̀	-7917
▁dauki	-7918
▁gwada	-7919
▁kaɗan	-7920
▁smote	-7921
▁bayani	-7922
▁punish	-7923
▁pàápàá	-7924
▁safety	-7925
▁ịghọta	-7926
▁dollars	-7927
▁express	-7928
▁mugunta	-7929
▁victims	-7930
▁Chairman	-7931
▁lágbègbè	-7932
▁mmekọahụ	-7933
▁Wednesday	-7934
▁indonesiano	-7935
Sp	-7936
bù	-7937
abo	-7938
iga	-7939
bụrụ	-7940
lict	-7941
wale	-7942
wide	-7943
wuru	-7944
ọnwa	-7945
▁cow	-7946
▁àbá	-7947
▁Ọmọ	-7948
anies	-7949
chite	-7950
▁nice	-7951
▁pull	-7952
▁rárá	-7953
▁tayi	-7954
▁2020,	-7955
▁ebere	-7956
▁lands	-7957
▁Àpéjọ	-7958
▁ƙofar	-7959
▁Gómìnà	-7960
▁Kraist	-7961
▁condem	-7962
▁fọduru	-7963
▁girman	-7964
▁shared	-7965
▁Àgbáyé	-7966
▁ìwádìí	-7967
▁Falcons	-7968
▁contest	-7969
▁largest	-7970
▁telling	-7971
▁required	-7972
▁Federation	-7973
▁Association	-7974
?2	-7975
BN	-7976
yì	-7977
zị	-7978
Two	-7979
ain	-7980
ays	-7981
bid	-7982
eds	-7983
ísí	-7984
atsu	-7985
know	-7986
▁3:1	-7987
▁Mba	-7988
▁ile	-7989
▁jik	-7990
▁kin	-7991
▁mbi	-7992
▁whe	-7993
kalin	-7994
osoft	-7995
ptism	-7996
uries	-7997
▁Torí	-7998
▁bish	-7999
▁code	-8000
▁harm	-8001
▁jini	-8002
▁park	-8003
▁sịrị	-8004
▁Gibbs	-8005
▁Maria	-8006
▁crime	-8007
▁dress	-8008
▁force	-8009
▁njikọ	-8010
▁paint	-8011
emember	-8012
▁Nnamdi	-8013
▁faɗawa	-8014
▁karatu	-8015
▁arrived	-8016
▁stories	-8017
▁Lawiyawa	-8018
▁approach	-8019
▁material	-8020
▁practice	-8021
▁signific	-8022
▁effective	-8023
▁established	-8024
0,	-8025
Ac	-8026
lad	-8027
▁Kh	-8028
▁dì	-8029
ango	-8030
cles	-8031
ichi	-8032
uben	-8033
unci	-8034
▁faɗ	-8035
▁fem	-8036
▁sen	-8037
▁taw	-8038
▁wọ̀	-8039
ewere	-8040
force	-8041
▁Hong	-8042
▁Mb͕e	-8043
▁Road	-8044
▁hali	-8045
▁jeji	-8046
▁swim	-8047
▁zafi	-8048
▁ọdịn	-8049
akpali	-8050
rosoft	-8051
▁Armen	-8052
▁Igbos	-8053
▁Kenya	-8054
▁amụma	-8055
▁dighi	-8056
▁emere	-8057
▁forty	-8058
▁teeth	-8059
▁yakan	-8060
emorial	-8061
▁Bitrus	-8062
▁preach	-8063
▁surely	-8064
▁takard	-8065
ependent	-8066
▁Joshuwa	-8067
▁Nations	-8068
▁advanta	-8069
▁tattara	-8070
▁binciken	-8071
▁standard	-8072
▁WordPress	-8073
▁confirmed	-8074
▁establish	-8075
▁Ekweremadu	-8076
▁yourselves	-8077
11	-8078
Oh	-8079
ej	-8080
Som	-8081
ege	-8082
làá	-8083
tak	-8084
ọbu	-8085
eces	-8086
hest	-8087
obah	-8088
tify	-8089
▁Mik	-8090
▁Sọl	-8091
▁aim	-8092
▁alụ	-8093
ỤKWUO	-8094
▁From	-8095
▁Real	-8096
▁bude	-8097
▁kids	-8098
ulated	-8099
▁bashi	-8100
▁kiran	-8101
▁north	-8102
▁School	-8103
▁ebighị	-8104
▁madaww	-8105
▁worshi	-8106
▁Assyria	-8107
▁achieve	-8108
renbolone	-8109
▁Jeremiah	-8110
▁incident	-8111
▁Information	-8112
PE	-8113
sẹ	-8114
uz	-8115
b͕u	-8116
lin	-8117
rap	-8118
▁Ai	-8119
Most	-8120
manụ	-8121
oral	-8122
uatl	-8123
zzar	-8124
▁Art	-8125
▁bon	-8126
▁duw	-8127
▁kim	-8128
▁àṣà	-8129
▁ìtà	-8130
Would	-8131
abawa	-8132
arken	-8133
ateau	-8134
thlet	-8135
▁Mala	-8136
▁fair	-8137
▁họrọ	-8138
▁jami	-8139
▁jide	-8140
▁numb	-8141
▁roll	-8142
ezighị	-8143
▁Premi	-8144
▁aware	-8145
▁guard	-8146
▁loves	-8147
▁marar	-8148
▁noted	-8149
▁raise	-8150
▁rauni	-8151
▁túmọ̀	-8152
eremony	-8153
▁Tuntun	-8154
▁circuit	-8155
▁Obasanjo	-8156
▁disaster	-8157
▁Languages	-8158
▁Newcastle	-8159
▁decisions	-8160
▁challenges	-8161
AL	-8162
Ni	-8163
.28	-8164
obe	-8165
van	-8166
àmá	-8167
agon	-8168
▁CAF	-8169
▁Our	-8170
▁Rob	-8171
▁alh	-8172
▁ash	-8173
▁ize	-8174
ancan	-8175
andon	-8176
beere	-8177
ously	-8178
phone	-8179
▁asib	-8180
▁bank	-8181
ẹjọ́rò	-8182
▁Abram	-8183
▁dutse	-8184
▁goods	-8185
▁likes	-8186
▁paper	-8187
▁Nether	-8188
▁asòfin	-8189
▁gospel	-8190
▁mẹ́sàn	-8191
▁racism	-8192
▁suffer	-8193
▁clearly	-8194
▁concern	-8195
▁dabeere	-8196
▁enweghi	-8197
▁hallaka	-8198
▁ndụmọdụ	-8199
▁private	-8200
▁computer	-8201
▁declared	-8202
▁kwukwara	-8203
▁sarautar	-8204
17	-8205
9.	-8206
Or	-8207
.29	-8208
org	-8209
ṣìí	-8210
▁46	-8211
aran	-8212
gige	-8213
▁5:1	-8214
▁Ram	-8215
▁abẹ	-8216
▁ada	-8217
▁dry	-8218
▁jag	-8219
▁lok	-8220
nyere	-8221
ṣiríṣ	-8222
ọ̀tọ̀	-8223
▁Cont	-8224
▁bóyá	-8225
▁igba	-8226
▁role	-8227
▁user	-8228
atform	-8229
icated	-8230
ndikom	-8231
▁Chief	-8232
▁adití	-8233
▁posts	-8234
▁ƙarya	-8235
▁ọ̀ràn	-8236
Another	-8237
▁godiya	-8238
▁kyauta	-8239
▁reward	-8240
▁throne	-8241
kẹ́kọ̀ọ́	-8242
ropriate	-8243
▁Atụmatụ	-8244
▁Jackson	-8245
▁halitta	-8246
▁imegide	-8247
▁Filistia	-8248
▁Jonathan	-8249
▁Okorocha	-8250
▁darkness	-8251
▁facility	-8252
▁friendly	-8253
▁kwanakin	-8254
▁medicine	-8255
▁continues	-8256
kẹ̀	-8257
ova	-8258
yya	-8259
▁2:	-8260
▁44	-8261
▁PC	-8262
▁aw	-8263
amed	-8264
ergy	-8265
ochi	-8266
▁Off	-8267
▁USA	-8268
▁tes	-8269
▁Ìwé	-8270
aminu	-8271
board	-8272
ivers	-8273
kpara	-8274
▁Abia	-8275
▁Beth	-8276
▁cece	-8277
▁inde	-8278
▁loud	-8279
▁ọgbà	-8280
ariyar	-8281
friend	-8282
ṣiríṣi	-8283
▁annab	-8284
▁equal	-8285
▁evacu	-8286
▁horse	-8287
▁mulki	-8288
▁trade	-8289
taining	-8290
▁amaghị	-8291
▁promot	-8292
▁screen	-8293
▁severe	-8294
▁Ìtumọ̀	-8295
▁ìdájọ́	-8296
cription	-8297
▁baptism	-8298
▁correct	-8299
▁explain	-8300
▁federal	-8301
▁forgive	-8302
▁gabatar	-8303
▁happens	-8304
▁káàkiri	-8305
▁Southern	-8306
▁favorite	-8307
▁movement	-8308
▁condition	-8309
▁preaching	-8310
▁researchers	-8311
15	-8312
▁ú	-8313
ien	-8314
ìní	-8315
▁(7	-8316
▁Cr	-8317
▁Fi	-8318
▁Já	-8319
▁ai	-8320
▁pí	-8321
▁Àì	-8322
ider	-8323
vert	-8324
zụzụ	-8325
▁Ach	-8326
▁Ash	-8327
▁Bol	-8328
▁Hai	-8329
▁Oní	-8330
▁Rel	-8331
▁efu	-8332
▁yọ̀	-8333
▁ịch	-8334
Click	-8335
alaxy	-8336
etate	-8337
uniya	-8338
▁Babb	-8339
▁Prin	-8340
▁cike	-8341
▁gain	-8342
▁jima	-8343
▁kudi	-8344
▁okpu	-8345
▁orin	-8346
▁pros	-8347
▁ship	-8348
icking	-8349
▁girls	-8350
▁grand	-8351
▁mẹ́jọ	-8352
▁Ẹ̀tọ́	-8353
stitute	-8354
▁Saraki	-8355
▁Secret	-8356
▁object	-8357
▁seemed	-8358
▁yiwuwa	-8359
▁Nahuatl	-8360
▁attract	-8361
▁ekwuola	-8362
▁méjìdín	-8363
▁Ministry	-8364
▁becoming	-8365
▁Christmas	-8366
▁Wherefore	-8367
▁production	-8368
IC	-8369
bit	-8370
xas	-8371
▁Dá	-8372
▁II	-8373
▁Ọ́	-8374
aden	-8375
asse	-8376
fara	-8377
áàbò	-8378
ògùn	-8379
▁Ala	-8380
▁Buk	-8381
▁Cre	-8382
▁asp	-8383
▁igi	-8384
▁nku	-8385
▁nut	-8386
▁pit	-8387
▁sáà	-8388
▁ìṣè	-8389
▁dájú	-8390
▁hack	-8391
▁kusk	-8392
▁pred	-8393
▁slew	-8394
▁tong	-8395
▁Ịgba	-8396
▁ọgọ́	-8397
▁gwaji	-8398
▁merie	-8399
▁ojiji	-8400
▁pinnu	-8401
▁sauka	-8402
▁ìlera	-8403
▁(2016)	-8404
▁tabern	-8405
▁yanayi	-8406
▁actions	-8407
▁attempt	-8408
▁ndepụta	-8409
▁opinion	-8410
▁cikakken	-8411
▁whatever	-8412
▁officials	-8413
▁sustained	-8414
,,	-8415
ls	-8416
.31	-8417
imb	-8418
írí	-8419
úsù	-8420
▁70	-8421
More	-8422
jack	-8423
kawa	-8424
rètí	-8425
▁Ins	-8426
▁arz	-8427
▁guy	-8428
▁sún	-8429
▁Èdè	-8430
▁Ìdí	-8431
osted	-8432
▁Arab	-8433
▁agen	-8434
▁burú	-8435
▁busy	-8436
▁kwat	-8437
▁lédè	-8438
▁mako	-8439
▁thie	-8440
abụghị	-8441
action	-8442
▁broke	-8443
▁hotel	-8444
▁plans	-8445
▁tọ́jú	-8446
▁Babila	-8447
▁Reuben	-8448
▁gabata	-8449
▁global	-8450
▁inyere	-8451
▁lifted	-8452
▁middle	-8453
▁scored	-8454
▁wàhálà	-8455
fication	-8456
▁Amerịka	-8457
▁Justice	-8458
▁billion	-8459
▁compass	-8460
▁earthqu	-8461
▁karshen	-8462
▁karịsịa	-8463
▁reigned	-8464
▁strange	-8465
▁streets	-8466
▁volunte	-8467
▁zuriyar	-8468
▁officers	-8469
▁watching	-8470
▁Faransanci	-8471
▁conversation	-8472
IM	-8473
IT	-8474
bó	-8475
Con	-8476
Nor	-8477
rọ́	-8478
wun	-8479
ọkụ	-8480
▁47	-8481
▁Ef	-8482
▁Má	-8483
▁oy	-8484
Inst	-8485
eman	-8486
just	-8487
mọrụ	-8488
nihu	-8489
rant	-8490
ugwu	-8491
wụwa	-8492
yọrí	-8493
àásù	-8494
áájú	-8495
ọdún	-8496
ụkwụ	-8497
▁28,	-8498
▁Aga	-8499
▁ini	-8500
▁suc	-8501
▁sym	-8502
▁Amor	-8503
▁INEC	-8504
▁iyal	-8505
▁load	-8506
▁shop	-8507
rìndín	-8508
▁Ahmed	-8509
▁Ruhun	-8510
▁brief	-8511
▁ideas	-8512
▁lalle	-8513
▁songs	-8514
▁worry	-8515
▁àkókò	-8516
▁ọkụkọ	-8517
lasting	-8518
ownload	-8519
▁Social	-8520
▁agbára	-8521
▁agreed	-8522
▁famous	-8523
▁malite	-8524
▁nwanyị	-8525
▁signed	-8526
▁source	-8527
▁benefit	-8528
▁covered	-8529
▁rejoice	-8530
▁student	-8531
▁subject	-8532
▁writing	-8533
▁ƙarshen	-8534
▁ceremony	-8535
▁instruct	-8536
▁mkparịta	-8537
▁currently	-8538
▁population	-8539
▁resurrection	-8540
Id	-8541
dò	-8542
Des	-8543
Mar	-8544
ayá	-8545
ebu	-8546
ena	-8547
etị	-8548
eum	-8549
gwù	-8550
kam	-8551
nic	-8552
uso	-8553
wab	-8554
▁41	-8555
▁5,	-8556
▁sà	-8557
adar	-8558
keré	-8559
miya	-8560
umin	-8561
wute	-8562
ẹ́rù	-8563
▁Bur	-8564
▁anu	-8565
▁aṣọ	-8566
▁fọ́	-8567
▁sùn	-8568
ounts	-8569
▁Kong	-8570
▁Thou	-8571
▁bird	-8572
▁tufa	-8573
▁ụmụn	-8574
ension	-8575
▁Texas	-8576
▁facts	-8577
▁kilom	-8578
▁model	-8579
▁nkọwa	-8580
▁rules	-8581
▁urged	-8582
▁àlejò	-8583
▁annabi	-8584
▁dókítà	-8585
▁leaves	-8586
▁observ	-8587
▁refuge	-8588
▁waters	-8589
▁Arsenal	-8590
▁Because	-8591
▁Jehobah	-8592
▁aláìsàn	-8593
▁bayanan	-8594
▁captain	-8595
▁charged	-8596
▁comment	-8597
▁healthy	-8598
▁letters	-8599
▁missing	-8600
▁patient	-8601
▁reached	-8602
▁sitting	-8603
▁blessing	-8604
▁response	-8605
▁suffered	-8606
▁tsarkake	-8607
▁appointed	-8608
▁corruption	-8609
▁university	-8610
▁Filistiyawa	-8611
45	-8612
Ke	-8613
Pa	-8614
kay	-8615
rol	-8616
ání	-8617
▁Ap	-8618
▁Bu	-8619
ador	-8620
born	-8621
kùṣù	-8622
ánis	-8623
ọṣẹ́	-8624
▁Inú	-8625
▁irè	-8626
▁nnọ	-8627
Maybe	-8628
astic	-8629
ochas	-8630
▁Lamb	-8631
▁cire	-8632
▁cold	-8633
▁hats	-8634
▁iska	-8635
▁norm	-8636
▁rabu	-8637
▁ẹ̀yà	-8638
elling	-8639
icious	-8640
▁Great	-8641
▁Islam	-8642
▁birni	-8643
▁bound	-8644
▁folks	-8645
▁haday	-8646
▁ochie	-8647
▁otutu	-8648
▁ịrịba	-8649
▁Akpado	-8650
▁Tagged	-8651
▁easily	-8652
▁enwere	-8653
▁joined	-8654
▁nkpuru	-8655
▁valley	-8656
▁arụmọrụ	-8657
▁calling	-8658
▁finally	-8659
▁walking	-8660
▁anabolic	-8661
▁original	-8662
▁violence	-8663
▁implement	-8664
▁Scriptures	-8665
▁commission	-8666
▁generation	-8667
▁leadership	-8668
▁mahaifiyar	-8669
amn	-8670
ewu	-8671
umu	-8672
▁4,	-8673
▁80	-8674
▁Mọ	-8675
▁Ọn	-8676
mark	-8677
mìtì	-8678
tụrụ	-8679
ọ́ni	-8680
▁Ann	-8681
▁Jis	-8682
▁Lab	-8683
▁jus	-8684
▁veh	-8685
Trans	-8686
ghari	-8687
huwar	-8688
kporo	-8689
lẹyìn	-8690
ọpụta	-8691
▁akpọ	-8692
▁capt	-8693
▁flag	-8694
▁fojú	-8695
▁giya	-8696
▁heat	-8697
▁term	-8698
▁Ìgbà	-8699
▁àgbé	-8700
▁àrùn	-8701
ipment	-8702
▁After	-8703
▁Greek	-8704
▁Jehoi	-8705
▁filin	-8706
▁occur	-8707
▁peeji	-8708
Matthew	-8709
▁mighty	-8710
▁thinks	-8711
▁umarce	-8712
▁ƙonawa	-8713
▁gafarta	-8714
▁gbọ́dọ̀	-8715
▁killing	-8716
▁realize	-8717
▁related	-8718
▁contract	-8719
▁greatest	-8720
▁kakannin	-8721
▁koyaushe	-8722
▁eventually	-8723
▁management	-8724
Of	-8725
kẹ	-8726
sy	-8727
oms	-8728
owó	-8729
rey	-8730
▁Gị	-8731
▁Ng	-8732
▁rị	-8733
acts	-8734
enth	-8735
keep	-8736
oman	-8737
oton	-8738
ájọ́	-8739
▁Gil	-8740
▁nrụ	-8741
▁pen	-8742
▁rik	-8743
▁ƙan	-8744
olate	-8745
ísítà	-8746
▁base	-8747
▁chec	-8748
▁fadi	-8749
▁fọrọ	-8750
▁sabb	-8751
▁Àgbà	-8752
▁ịkpa	-8753
ṣàmúlò	-8754
▁board	-8755
▁fifty	-8756
▁range	-8757
▁sched	-8758
▁steps	-8759
▁síyẹn	-8760
▁tears	-8761
▁Mulkin	-8762
▁credit	-8763
▁ruling	-8764
úkọsílẹ̀	-8765
▁leading	-8766
▁product	-8767
▁ìgbésẹ̀	-8768
▁Allahnmu	-8769
▁Japanese	-8770
▁benefits	-8771
▁companies	-8772
▁regarding	-8773
▁responsibility	-8774
?”	-8775
Old	-8776
unt	-8777
▁fò	-8778
gium	-8779
haps	-8780
olic	-8781
ruck	-8782
zakh	-8783
▁Bas	-8784
▁Kam	-8785
▁Mur	-8786
▁Naz	-8787
▁ìta	-8788
India	-8789
erian	-8790
▁Comp	-8791
▁Dịka	-8792
▁Edom	-8793
▁Roma	-8794
▁adam	-8795
▁kaya	-8796
▁nesa	-8797
▁Musul	-8798
▁Urdun	-8799
▁basis	-8800
▁bekee	-8801
▁estim	-8802
▁false	-8803
▁murna	-8804
▁sorry	-8805
▁weren	-8806
▁Kazakh	-8807
▁Rights	-8808
▁offers	-8809
▁Finland	-8810
▁Gọọment	-8811
▁cikinsu	-8812
▁constit	-8813
▁counsel	-8814
▁station	-8815
▁creation	-8816
▁electric	-8817
▁fahimtar	-8818
▁lóbìnrin	-8819
▁Microsoft	-8820
▁certainly	-8821
▁displaced	-8822
▁everybody	-8823
▁everlasting	-8824
▁Commonwealth	-8825
Ha	-8826
alf	-8827
har	-8828
ito	-8829
ṣọ́	-8830
▁Ev	-8831
▁bé	-8832
...]	-8833
Read	-8834
ader	-8835
aren	-8836
ford	-8837
tálì	-8838
word	-8839
ẹ́ni	-8840
▁Not	-8841
▁ble	-8842
▁gur	-8843
▁hau	-8844
▁pil	-8845
▁ọjị	-8846
break	-8847
míràn	-8848
odies	-8849
offee	-8850
ẹ̀kọ́	-8851
▁Chel	-8852
▁Mama	-8853
▁baza	-8854
▁easi	-8855
▁koyi	-8856
▁méjè	-8857
▁ṣíṣe	-8858
Before	-8859
kàndín	-8860
ration	-8861
ritory	-8862
▁Shehu	-8863
▁[...]	-8864
▁binne	-8865
▁iniqu	-8866
▁motar	-8867
▁àádọ́	-8868
▁ọzụzụ	-8869
ressive	-8870
ínísítà	-8871
▁Chukwu	-8872
▁extrem	-8873
▁garden	-8874
▁prayed	-8875
▁salama	-8876
▁ability	-8877
▁courage	-8878
▁highest	-8879
▁kpatara	-8880
▁newspap	-8881
▁showing	-8882
ánisọ̀rọ̀	-8883
▁included	-8884
▁historical	-8885
▁protection	-8886
▁shugabannin	-8887
cho	-8888
eli	-8889
has	-8890
kwá	-8891
oid	-8892
yọ̀	-8893
▁Kì	-8894
▁mò	-8895
▁mụ	-8896
..."	-8897
Good	-8898
rang	-8899
yàwó	-8900
▁Gar	-8901
▁Ked	-8902
▁Lit	-8903
▁Pọl	-8904
▁mem	-8905
▁und	-8906
▁yàn	-8907
arily	-8908
asseh	-8909
voire	-8910
▁Area	-8911
▁Bash	-8912
▁Sand	-8913
▁bill	-8914
▁bush	-8915
▁kark	-8916
▁kéde	-8917
▁quar	-8918
▁rede	-8919
▁síbi	-8920
▁tast	-8921
aghọta	-8922
ements	-8923
lẹ́yìn	-8924
vision	-8925
▁dance	-8926
▁daren	-8927
▁fifth	-8928
▁iyali	-8929
▁twice	-8930
▁yarin	-8931
▁zaton	-8932
▁ọmọdé	-8933
bangiji	-8934
ossible	-8935
ructure	-8936
▁Kaduna	-8937
▁Sweden	-8938
▁decide	-8939
▁dinner	-8940
▁enyere	-8941
▁kékeré	-8942
▁pieces	-8943
▁talked	-8944
▁trials	-8945
▁warkar	-8946
▁youths	-8947
▁Samaria	-8948
▁aghụghọ	-8949
▁ashirin	-8950
▁feeling	-8951
▁kuskure	-8952
▁njedebe	-8953
▁removed	-8954
▁sojojin	-8955
rànlọ́wọ́	-8956
velopment	-8957
▁Manasseh	-8958
▁communic	-8959
▁excellent	-8960
▁dangantaka	-8961
6.	-8962
IS	-8963
tè	-8964
inc	-8965
sea	-8966
tàn	-8967
uch	-8968
úná	-8969
▁42	-8970
▁Fe	-8971
▁Lé	-8972
▁Mí	-8973
▁du	-8974
▁yà	-8975
idge	-8976
ours	-8977
oves	-8978
wọlé	-8979
únib	-8980
▁(19	-8981
▁Mgb	-8982
▁bịa	-8983
▁mpụ	-8984
▁oyi	-8985
▁àsọ	-8986
apore	-8987
going	-8988
rọ̀sọ	-8989
▁100%	-8990
▁Jess	-8991
▁Peru	-8992
▁band	-8993
▁comb	-8994
▁dubi	-8995
▁mílí	-8996
▁riƙe	-8997
▁wide	-8998
▁ìrìn	-8999
istics	-9000
mìtìtì	-9001
▁River	-9002
▁barin	-9003
▁civil	-9004
▁ciwon	-9005
▁claim	-9006
▁extra	-9007
▁glori	-9008
▁nleta	-9009
▁progr	-9010
▁sweet	-9011
ábìnrin	-9012
▁buried	-9013
▁sought	-9014
▁spokes	-9015
▁ìwàásù	-9016
milọ́rùn	-9017
▁Matthew	-9018
▁amaokwu	-9019
▁chapter	-9020
▁earlier	-9021
▁economy	-9022
▁guarant	-9023
▁monitor	-9024
▁function	-9025
▁matsalar	-9026
▁individual	-9027
▁mkpakọrịta	-9028
GP	-9029
ox	-9030
zí	-9031
.30	-9032
izu	-9033
jah	-9034
mba	-9035
▁7,	-9036
anka	-9037
fest	-9038
guzo	-9039
imum	-9040
oram	-9041
pher	-9042
uche	-9043
urar	-9044
▁30,	-9045
▁Gir	-9046
▁òjò	-9047
estiv	-9048
ighty	-9049
oured	-9050
▁coci	-9051
▁hell	-9052
▁note	-9053
▁nway	-9054
▁tatt	-9055
▁ṣoṣo	-9056
Ivoire	-9057
inihin	-9058
làáfíà	-9059
ricane	-9060
ìyànjú	-9061
▁Jerem	-9062
▁demon	-9063
▁jinin	-9064
▁kisan	-9065
▁lágbà	-9066
▁otuto	-9067
▁sauki	-9068
▁unity	-9069
▁wives	-9070
▁Galaxy	-9071
▁GỤKWUO	-9072
▁Turkey	-9073
▁appeal	-9074
▁brings	-9075
▁bukata	-9076
▁hungry	-9077
▁pàdánù	-9078
▁vision	-9079
▁gbàdúrà	-9080
▁wurinsa	-9081
▁Memorial	-9082
▁attacked	-9083
▁ayélujára	-9084
▁potential	-9085
▁almajiransa	-9086
▁responsible	-9087
BA	-9088
De	-9089
mm	-9090
azị	-9091
bek	-9092
fat	-9093
inu	-9094
kò̩	-9095
orù	-9096
pts	-9097
Love	-9098
vest	-9099
wọ́n	-9100
▁Ber	-9101
▁Jam	-9102
▁Pat	-9103
▁ded	-9104
▁ebo	-9105
▁ult	-9106
▁ọkà	-9107
rúurú	-9108
uwata	-9109
ṣìírí	-9110
▁Camp	-9111
▁Joab	-9112
▁Nebu	-9113
▁firm	-9114
▁igwu	-9115
▁neck	-9116
▁nkwụ	-9117
▁repl	-9118
▁wake	-9119
▁zamu	-9120
tively	-9121
▁ahụhụ	-9122
▁arose	-9123
▁devil	-9124
▁inabi	-9125
▁nwata	-9126
▁òṣèlú	-9127
▁ɗakin	-9128
ections	-9129
únibíni	-9130
▁burned	-9131
▁coffee	-9132
▁cometh	-9133
▁daraja	-9134
▁fourth	-9135
▁labari	-9136
▁terror	-9137
▁Belgium	-9138
▁asibiti	-9139
▁méjèèjì	-9140
▁ogbenye	-9141
▁protest	-9142
▁wedding	-9143
▁defeated	-9144
▁Arábìnrin	-9145
▁providing	-9146
▁tabernacle	-9147
▁Netherlands	-9148
▁administration	-9149
18	-9150
YER	-9151
bịa	-9152
don	-9153
ehi	-9154
ilé	-9155
lọ̀	-9156
▁ew	-9157
STOR	-9158
akim	-9159
anut	-9160
burg	-9161
ilis	-9162
pátá	-9163
uced	-9164
úúsù	-9165
▁DSS	-9166
▁Iwu	-9167
▁Mẹ́	-9168
▁Ter	-9169
▁adm	-9170
▁kit	-9171
▁àwò	-9172
▁ọdụ	-9173
ables	-9174
ahara	-9175
fanin	-9176
salom	-9177
ọrọnd	-9178
▁Jose	-9179
▁Rome	-9180
▁dabb	-9181
adamba	-9182
celand	-9183
esịghị	-9184
▁Apple	-9185
▁Bless	-9186
▁aboka	-9187
▁adarí	-9188
▁assum	-9189
▁chose	-9190
▁grate	-9191
▁innoc	-9192
▁plain	-9193
▁prosp	-9194
▁àdúrà	-9195
▁Ẹ̀wẹ̀	-9196
agbanwe	-9197
▁System	-9198
▁Victor	-9199
▁female	-9200
▁option	-9201
▁summer	-9202
▁Ìròyìn	-9203
▁Absalom	-9204
▁Zapotec	-9205
▁irinṣẹ́	-9206
▁mgbochi	-9207
▁nífẹ̀ẹ́	-9208
▁winning	-9209
▁Hezekiah	-9210
▁critical	-9211
▁pictures	-9212
▁platform	-9213
▁ɗaukakar	-9214
▁Ọmọnìyàn	-9215
▁encourage	-9216
▁wordpress	-9217
▁ọ̀tọ̀ọ̀tọ̀	-9218
▁environment	-9219
ED	-9220
Her	-9221
New	-9222
bie	-9223
ego	-9224
iro	-9225
rie	-9226
ịlụ	-9227
▁1.	-9228
▁Up	-9229
▁án	-9230
acka	-9231
anwu	-9232
stal	-9233
take	-9234
àbọ̀	-9235
▁deg	-9236
▁dọ́	-9237
▁nkụ	-9238
▁pal	-9239
▁pụọ	-9240
▁àtẹ	-9241
▁èlò	-9242
accen	-9243
títọ́	-9244
▁IPOB	-9245
▁Play	-9246
▁Stud	-9247
▁dies	-9248
▁fush	-9249
▁lady	-9250
▁lazy	-9251
Thanks	-9252
amaghị	-9253
▁basic	-9254
▁broad	-9255
▁fully	-9256
▁green	-9257
▁maybe	-9258
▁murya	-9259
irikiri	-9260
peaking	-9261
▁Rwanda	-9262
▁Virgin	-9263
▁alàgbà	-9264
▁energy	-9265
▁lawyer	-9266
▁photos	-9267
lélọ́gọ́	-9268
▁Iceland	-9269
▁Kirista	-9270
▁Lórílẹ̀	-9271
▁hukunta	-9272
▁limited	-9273
▁nchegbu	-9274
▁ndọrọnd	-9275
▁announce	-9276
▁features	-9277
▁Institute	-9278
▁Singapore	-9279
▁surprised	-9280
13	-9281
pù	-9282
▁?	-9283
500	-9284
Iji	-9285
jìn	-9286
sán	-9287
uro	-9288
▁Ja	-9289
▁Lu	-9290
▁Mé	-9291
▁Nn	-9292
▁Ru	-9293
Like	-9294
asia	-9295
dict	-9296
rúkọ	-9297
rịka	-9298
umar	-9299
weet	-9300
▁...	-9301
▁Dut	-9302
▁Wad	-9303
▁ess	-9304
▁jìn	-9305
▁kat	-9306
▁nme	-9307
▁zub	-9308
▁Àwa	-9309
abalị	-9310
acles	-9311
round	-9312
▁Masu	-9313
▁Pita	-9314
▁Uban	-9315
▁idol	-9316
▁sayi	-9317
▁vess	-9318
▁ìkan	-9319
▁Cheta	-9320
▁Human	-9321
▁Jisus	-9322
▁eleph	-9323
▁grave	-9324
▁kadan	-9325
▁kwụsị	-9326
▁roƙon	-9327
▁surve	-9328
▁ịzụta	-9329
istered	-9330
▁Agency	-9331
▁applic	-9332
▁border	-9333
▁growth	-9334
▁loving	-9335
▁ìwòsàn	-9336
▁Himself	-9337
▁sabuwar	-9338
▁Director	-9339
▁accepted	-9340
▁gbìyànjú	-9341
▁majority	-9342
▁separate	-9343
▁dangerous	-9344
▁followers	-9345
▁materials	-9346
▁sentenced	-9347
▁background	-9348
▁discovered	-9349
▁appropriate	-9350
▁construction	-9351
YÂ	-9352
”!	-9353
Car	-9354
uga	-9355
yẹ́	-9356
ụka	-9357
▁tò	-9358
fall	-9359
keti	-9360
kuna	-9361
taur	-9362
uren	-9363
yalé	-9364
ọ̀nù	-9365
▁18,	-9366
▁Big	-9367
▁Han	-9368
▁Leg	-9369
▁bug	-9370
▁jẹ̀	-9371
▁via	-9372
▁ụtụ	-9373
allon	-9374
inary	-9375
wádìí	-9376
▁Ahab	-9377
▁Gibe	-9378
▁Njem	-9379
▁abịa	-9380
▁azur	-9381
▁dadi	-9382
▁kore	-9383
▁resc	-9384
▁retí	-9385
▁ìgbá	-9386
▁ɓata	-9387
STORYÂ	-9388
verage	-9389
▁Elish	-9390
▁ceton	-9391
▁ibùdó	-9392
▁sukan	-9393
askiyar	-9394
kùrọ̀sọ	-9395
stances	-9396
▁Gẹ́gẹ́	-9397
▁animal	-9398
▁bayere	-9399
▁closed	-9400
▁enweta	-9401
▁hasken	-9402
▁nghọta	-9403
▁transg	-9404
▁Ikpeazụ	-9405
▁Johnson	-9406
▁agbanwe	-9407
▁coordin	-9408
▁feature	-9409
▁gudanar	-9410
▁helping	-9411
▁mutuwar	-9412
▁officer	-9413
▁putting	-9414
▁village	-9415
cientious	-9416
▁grateful	-9417
▁laghachi	-9418
▁realized	-9419
▁completed	-9420
▁lọ́kùnrin	-9421
▁sarakunan	-9422
.,	-9423
8.	-9424
TC	-9425
fò	-9426
ebo	-9427
ilu	-9428
mán	-9429
oca	-9430
ɓar	-9431
▁8,	-9432
▁dè	-9433
List	-9434
abet	-9435
ival	-9436
kóso	-9437
orns	-9438
▁19,	-9439
▁Esa	-9440
▁jer	-9441
▁tag	-9442
▁ƙwa	-9443
aying	-9444
mputa	-9445
▁Best	-9446
▁Irin	-9447
▁deni	-9448
▁guid	-9449
▁hide	-9450
▁ikom	-9451
▁murd	-9452
▁nema	-9453
▁size	-9454
▁taus	-9455
▁tsor	-9456
engers	-9457
putara	-9458
ullahi	-9459
▁Local	-9460
▁divid	-9461
▁floor	-9462
▁goolu	-9463
▁items	-9464
▁mwute	-9465
illance	-9466
▁(2012)	-9467
▁Relief	-9468
▁haifar	-9469
▁mgbaru	-9470
▁notice	-9471
▁onímọ̀	-9472
▁tribes	-9473
▁ɗaukar	-9474
▁Plateau	-9475
▁accused	-9476
▁details	-9477
▁lafiyar	-9478
▁praying	-9479
▁onírúurú	-9480
▁Egwuregwu	-9481
▁champions	-9482
▁elections	-9483
▁equipment	-9484
▁mountains	-9485
▁assistance	-9486
ES	-9487
HO	-9488
LL	-9489
eg	-9490
ìẹ	-9491
amụ	-9492
díò	-9493
las	-9494
mụọ	-9495
pty	-9496
sar	-9497
ọna	-9498
▁Et	-9499
▁Ty	-9500
▁nà	-9501
▁wù	-9502
PYER	-9503
ibly	-9504
ogun	-9505
olly	-9506
yèsí	-9507
▁Nad	-9508
▁Zab	-9509
▁aro	-9510
▁àrí	-9511
▁ịjụ	-9512
PYERA	-9513
fofin	-9514
pamọ́	-9515
▁Mari	-9516
▁Take	-9517
▁exam	-9518
▁gbaa	-9519
▁haɗa	-9520
▁iron	-9521
▁trip	-9522
▁Ọjọ́	-9523
achara	-9524
▁abalị	-9525
▁fàgbà	-9526
▁guide	-9527
▁kanku	-9528
▁noise	-9529
▁refer	-9530
▁shown	-9531
▁wanke	-9532
▁àlàyé	-9533
▁ɓanga	-9534
asarawa	-9535
emepụta	-9536
▁Esther	-9537
▁People	-9538
▁Rochas	-9539
▁accomp	-9540
▁meriri	-9541
▁misali	-9542
▁stones	-9543
▁tseren	-9544
▁wealth	-9545
▁ọgbakọ	-9546
▁Haikali	-9547
▁Maganar	-9548
▁anybody	-9549
▁complex	-9550
▁council	-9551
▁unclean	-9552
▁comments	-9553
▁gaskiyar	-9554
▁lágbàáyé	-9555
▁terrible	-9556
▁chọpụtara	-9557
▁expensive	-9558
▁testimony	-9559
tẹ́milọ́rùn	-9560
▁Department	-9561
▁traditional	-9562
1.	-9563
MA	-9564
MS	-9565
6).	-9566
Any	-9567
ekp	-9568
jar	-9569
onú	-9570
wat	-9571
ịza	-9572
▁Ca	-9573
▁Ek	-9574
Book	-9575
aria	-9576
hips	-9577
issa	-9578
lódé	-9579
ughe	-9580
yẹyẹ	-9581
zuga	-9582
▁Bir	-9583
▁Mrs	-9584
▁Unu	-9585
▁hom	-9586
▁lam	-9587
▁sup	-9588
North	-9589
enior	-9590
inyom	-9591
orocc	-9592
▁Ugwu	-9593
▁Year	-9594
▁bind	-9595
▁deaf	-9596
▁sort	-9597
▁zara	-9598
innick	-9599
▁legis	-9600
▁lower	-9601
▁shoot	-9602
▁ziyar	-9603
▁aminci	-9604
▁center	-9605
▁denied	-9606
▁fallen	-9607
▁lọ́kàn	-9608
▁matasa	-9609
▁nature	-9610
▁rantse	-9611
▁sayens	-9612
▁skills	-9613
▁speaks	-9614
▁Olympic	-9615
▁Western	-9616
▁ainihin	-9617
▁charges	-9618
▁matarsa	-9619
▁therein	-9620
▁wuraren	-9621
stitution	-9622
▁collabor	-9623
▁fighting	-9624
▁hukuncin	-9625
▁learners	-9626
▁mbadamba	-9627
▁taimakawa	-9628
▁imprisoned	-9629
23	-9630
Mon	-9631
Olu	-9632
Rom	-9633
apu	-9634
atị	-9635
icy	-9636
rof	-9637
ṣep	-9638
▁48	-9639
▁Ge	-9640
▁Ná	-9641
alde	-9642
ecti	-9643
emme	-9644
irst	-9645
rite	-9646
▁Kur	-9647
▁Set	-9648
▁ayò	-9649
▁oko	-9650
▁àkọ	-9651
inthi	-9652
legal	-9653
umike	-9654
▁Kare	-9655
▁preg	-9656
▁ruhu	-9657
▁rụrụ	-9658
▁spot	-9659
▁sórí	-9660
▁tech	-9661
▁wakp	-9662
▁àtẹ̀	-9663
▁ƙare	-9664
▁ɓoye	-9665
agaghị	-9666
change	-9667
orious	-9668
orship	-9669
▁Damas	-9670
▁karta	-9671
▁matan	-9672
▁onwun	-9673
▁panel	-9674
▁prove	-9675
▁quiet	-9676
nikẹ́ni	-9677
▁favour	-9678
▁idanun	-9679
▁kwashe	-9680
▁levels	-9681
▁minute	-9682
▁nwayọọ	-9683
▁síwájú	-9684
▁tiketi	-9685
▁Medical	-9686
▁gbangba	-9687
▁restaur	-9688
▁shepher	-9689
▁turning	-9690
▁Cameroon	-9691
▁measures	-9692
▁projects	-9693
▁remained	-9694
▁taimakon	-9695
▁challenge	-9696
▁mẹ́rìndín	-9697
▁mọ́kàndín	-9698
▁okirikiri	-9699
▁published	-9700
▁transport	-9701
▁wonderful	-9702
▁Democratic	-9703
▁impossible	-9704
▁kyakkyawan	-9705
▁sacrifices	-9706
▁akọ́nimọ̀ọ́gbá	-9707
fí	-9708
kn	-9709
APC	-9710
vis	-9711
zes	-9712
▁(8	-9713
hens	-9714
lite	-9715
ọnwụ	-9716
▁500	-9717
▁Awa	-9718
▁Dec	-9719
▁Hon	-9720
▁Hur	-9721
▁Kor	-9722
▁Nan	-9723
▁Oke	-9724
▁anā	-9725
▁ode	-9726
▁tor	-9727
▁ìpè	-9728
ahiri	-9729
atụle	-9730
▁dịrị	-9731
▁kódà	-9732
▁ogún	-9733
▁ọrọ̀	-9734
okporo	-9735
▁Grand	-9736
▁Maced	-9737
▁Never	-9738
▁Nǹkan	-9739
▁apart	-9740
▁kunya	-9741
▁oppos	-9742
▁pride	-9743
▁waste	-9744
▁ọwụwa	-9745
ference	-9746
limited	-9747
▁Street	-9748
▁affect	-9749
▁easier	-9750
▁employ	-9751
▁failed	-9752
Remember	-9753
▁kọmputa	-9754
▁manager	-9755
▁masquer	-9756
▁mmepụta	-9757
▁opening	-9758
▁prophes	-9759
▁stadium	-9760
▁zamanin	-9761
▁Hospital	-9762
▁ntaakụkọ	-9763
▁ruhaniya	-9764
▁tambayar	-9765
ayárabíàṣá	-9766
▁Testament	-9767
▁household	-9768
▁territory	-9769
▁translate	-9770
▁Convention	-9771
▁commitment	-9772
▁ndọrọndọrọ	-9773
▁Development	-9774
▁professional	-9775
▁registration	-9776
35	-9777
Ju	-9778
dy	-9779
ek	-9780
▁x	-9781
ARS	-9782
aca	-9783
azọ	-9784
ibi	-9785
nri	-9786
zor	-9787
▁".	-9788
arsh	-9789
borí	-9790
isha	-9791
kpam	-9792
rain	-9793
yyar	-9794
ọdan	-9795
ọ̀nà	-9796
▁Nso	-9797
▁anw	-9798
▁iOS	-9799
▁kín	-9800
▁pie	-9801
▁pla	-9802
▁spo	-9803
▁Ètò	-9804
▁ìdì	-9805
based	-9806
ekele	-9807
orida	-9808
rance	-9809
uwana	-9810
▁Come	-9811
▁diri	-9812
▁hill	-9813
▁sanc	-9814
▁stew	-9815
▁unit	-9816
alized	-9817
gidere	-9818
▁Jọdan	-9819
▁Uzbek	-9820
▁conce	-9821
▁dauka	-9822
▁prior	-9823
▁shafi	-9824
▁tebur	-9825
▁wound	-9826
▁yamma	-9827
▁ƙauna	-9828
ẹsẹ̀gbá	-9829
▁Egypti	-9830
▁Gọvanọ	-9831
▁forces	-9832
▁láàrin	-9833
▁placed	-9834
▁prefer	-9835
▁rememb	-9836
▁sinned	-9837
▁siyasa	-9838
▁ọdịmma	-9839
Ubangiji	-9840
▁Chelsea	-9841
▁answers	-9842
▁anụmanụ	-9843
▁bayanai	-9844
▁haihuwa	-9845
▁umarnin	-9846
▁wearing	-9847
▁welcome	-9848
▁àlàáfíà	-9849
▁Corinthi	-9850
▁believes	-9851
▁elephant	-9852
▁hundreds	-9853
▁ịtụnanya	-9854
▁copyright	-9855
▁multitude	-9856
▁recommend	-9857
▁Kazakhstan	-9858
▁determined	-9859
▁experienced	-9860
TT	-9861
àì	-9862
.32	-9863
1).	-9864
ajụ	-9865
arọ	-9866
ovs	-9867
pse	-9868
rep	-9869
ste	-9870
▁90	-9871
▁sn	-9872
▁Ṣà	-9873
Anyị	-9874
agen	-9875
ahon	-9876
echi	-9877
hónú	-9878
imar	-9879
kwuo	-9880
pọlọ	-9881
wata	-9882
ífún	-9883
▁Pịa	-9884
▁Wal	-9885
▁egg	-9886
▁fig	-9887
▁mix	-9888
▁nma	-9889
▁rụọ	-9890
ahọrọ	-9891
eters	-9892
ishin	-9893
kalẹ̀	-9894
lette	-9895
under	-9896
▁arms	-9897
▁cuta	-9898
▁grew	-9899
▁ibẹ̀	-9900
▁male	-9901
▁riƙa	-9902
▁taur	-9903
......	-9904
▁Croat	-9905
▁Daalụ	-9906
▁Niger	-9907
▁absol	-9908
▁bụkwa	-9909
▁ihere	-9910
▁karɓi	-9911
▁kashi	-9912
▁nhazi	-9913
▁ought	-9914
▁signs	-9915
▁ọdịda	-9916
oulette	-9917
▁Econom	-9918
▁abokin	-9919
▁abroad	-9920
▁acknow	-9921
▁artist	-9922
▁azurfa	-9923
▁driven	-9924
▁league	-9925
▁shakka	-9926
▁takobi	-9927
▁Armenia	-9928
▁careful	-9929
▁chọpụta	-9930
▁erékùṣù	-9931
▁install	-9932
▁kabilar	-9933
▁matuƙar	-9934
▁primary	-9935
▁records	-9936
▁sinners	-9937
▁Portugal	-9938
▁pressure	-9939
▁Secretary	-9940
▁agbẹjọ́rò	-9941
▁developed	-9942
▁financial	-9943
▁tambayoyi	-9944
▁mahaifinsa	-9945
FL	-9946
gì	-9947
tú	-9948
ó̩	-9949
equ	-9950
ete	-9951
isc	-9952
ufa	-9953
zai	-9954
▁Er	-9955
▁Og	-9956
▁Sk	-9957
▁uf	-9958
Over	-9959
cher	-9960
owam	-9961
unin	-9962
▁4:1	-9963
▁Ant	-9964
▁Ing	-9965
▁Ori	-9966
▁Pal	-9967
▁Rec	-9968
▁fly	-9969
▁rom	-9970
▁tam	-9971
▁ịlụ	-9972
▁ọba	-9973
akari	-9974
annah	-9975
ayyar	-9976
bẹ̀wò	-9977
itely	-9978
oking	-9979
quire	-9980
ushed	-9981
usoro	-9982
wakpo	-9983
▁Gold	-9984
▁Mont	-9985
▁deny	-9986
▁kẹta	-9987
▁létí	-9988
▁murm	-9989
▁márù	-9990
▁nọrọ	-9991
▁siya	-9992
▁wash	-9993
▁ẹran	-9994
▁ịkwa	-9995
echeta	-9996
manuel	-9997
nezzar	-9998
▁Leban	-9999
▁batun	-10000
▁glass	-10001
▁ident	-10002
▁izute	-10003
▁shame	-10004
▁stuff	-10005
▁ẹ̀yìn	-10006
eration	-10007
ikpeazụ	-10008
thletes	-10009
versary	-10010
▁Centre	-10011
▁altern	-10012
▁angels	-10013
▁beauty	-10014
▁cattle	-10015
▁crying	-10016
▁handle	-10017
▁iyayen	-10018
▁manzan	-10019
▁ncheta	-10020
▁status	-10021
▁talent	-10022
▁tsohon	-10023
▁wishes	-10024
▁àfikún	-10025
▁Florida	-10026
▁average	-10027
▁mkpuchi	-10028
▁pattern	-10029
▁Comments	-10030
▁Disaster	-10031
▁mẹ́tàdín	-10032
▁advantage	-10033
▁believers	-10034
▁conscience	-10035
25	-10036
Wa	-10037
dẹ	-10038
EFA	-10039
akw	-10040
ier	-10041
ppy	-10042
Sura	-10043
icip	-10044
trol	-10045
ọghọ	-10046
▁15,	-10047
▁Atl	-10048
▁Att	-10049
▁Sil	-10050
▁Tar	-10051
▁cli	-10052
▁ked	-10053
▁map	-10054
▁màá	-10055
▁nkp	-10056
Allah	-10057
chiri	-10058
venue	-10059
▁Cath	-10060
▁Mmụọ	-10061
▁biko	-10062
▁bull	-10063
▁jump	-10064
▁mota	-10065
▁rawa	-10066
▁waƙa	-10067
▁ɗaga	-10068
acking	-10069
ecuted	-10070
▁Ammon	-10071
▁Mikel	-10072
▁Times	-10073
▁barci	-10074
▁bákan	-10075
▁efere	-10076
▁empty	-10077
▁keeps	-10078
▁motsa	-10079
▁older	-10080
▁Ishaku	-10081
▁Sports	-10082
▁Survey	-10083
▁bodies	-10084
▁gwajin	-10085
▁halitt	-10086
▁mesịrị	-10087
▁namiji	-10088
▁struck	-10089
▁yankin	-10090
▁ìwífún	-10091
▁gidajen	-10092
▁kpebiri	-10093
▁mothers	-10094
▁onwunwe	-10095
▁schools	-10096
▁ụgbọelu	-10097
▁analysis	-10098
▁document	-10099
▁flooding	-10100
▁instance	-10101
▁multiple	-10102
▁mummunan	-10103
▁recorded	-10104
▁ẹnikẹ́ni	-10105
▁Abdullahi	-10106
▁newspaper	-10107
▁Corinthians	-10108
ṣọ	-10109
TMs	-10110
gaz	-10111
ɗan	-10112
▁Ky	-10113
Keep	-10114
Tell	-10115
alib	-10116
alwa	-10117
esty	-10118
haji	-10119
kuru	-10120
muma	-10121
radì	-10122
rika	-10123
▁23,	-10124
▁apụ	-10125
▁gad	-10126
▁gag	-10127
▁mud	-10128
▁rẹ́	-10129
▁àmà	-10130
Their	-10131
amuma	-10132
areth	-10133
known	-10134
sover	-10135
utara	-10136
while	-10137
▁Baba	-10138
▁Free	-10139
▁Phar	-10140
▁appr	-10141
▁crit	-10142
▁daɗe	-10143
▁dear	-10144
▁desp	-10145
▁fili	-10146
▁hara	-10147
▁repe	-10148
▁siff	-10149
▁task	-10150
▁upgr	-10151
fortun	-10152
obowam	-10153
ẹ̀ẹ́sì	-10154
▁Ghost	-10155
▁Mímọ́	-10156
▁Smith	-10157
▁chiri	-10158
▁iwájú	-10159
▁shoes	-10160
▁sáwọn	-10161
▁tsira	-10162
▁Jehosh	-10163
▁associ	-10164
▁causes	-10165
▁convin	-10166
▁finish	-10167
▁itacen	-10168
▁redeem	-10169
▁ránṣẹ́	-10170
▁ṣẹ̀ṣẹ̀	-10171
standing	-10172
▁duwatsu	-10173
▁ezumike	-10174
▁passion	-10175
▁systems	-10176
▁younger	-10177
▁hankalin	-10178
▁millions	-10179
▁márùndín	-10180
▁occasion	-10181
▁preached	-10182
▁overseers	-10183
▁congregations	-10184
▁opportunities	-10185
Dr	-10186
fú	-10187
Art	-10188
bọ́	-10189
osu	-10190
uty	-10191
▁AF	-10192
eson	-10193
gawa	-10194
iyya	-10195
kaia	-10196
kika	-10197
nces	-10198
okwa	-10199
ores	-10200
pool	-10201
utun	-10202
waii	-10203
yoyi	-10204
▁Liv	-10205
▁Ngw	-10206
▁Sar	-10207
▁dar	-10208
▁dat	-10209
▁rin	-10210
▁tum	-10211
▁wak	-10212
▁ìkó	-10213
▁ọku	-10214
artar	-10215
imele	-10216
night	-10217
wanye	-10218
▁Akwa	-10219
▁Atta	-10220
▁Bang	-10221
▁Body	-10222
▁biar	-10223
▁ciwo	-10224
▁gent	-10225
▁legs	-10226
▁nkwu	-10227
▁trem	-10228
▁yams	-10229
▁ìkàn	-10230
▁Admin	-10231
▁Otomi	-10232
▁ayẹyẹ	-10233
▁kills	-10234
▁limit	-10235
▁nkuzi	-10236
▁tests	-10237
Despite	-10238
▁Austar	-10239
▁Wancan	-10240
▁gómìnà	-10241
▁muryar	-10242
▁sannan	-10243
▁script	-10244
▁MacBook	-10245
▁biggest	-10246
▁claimed	-10247
▁delight	-10248
▁options	-10249
▁privacy	-10250
▁succeed	-10251
▁ƙarfafa	-10252
ashington	-10253
▁chairman	-10254
▁ntorobịa	-10255
▁restrict	-10256
▁tabbacin	-10257
▁Education	-10258
▁happening	-10259
▁residents	-10260
▁encouraged	-10261
▁significant	-10262
21	-10263
my	-10264
APT	-10265
cow	-10266
kwà	-10267
lle	-10268
ndụ	-10269
odu	-10270
olo	-10271
ses	-10272
yev	-10273
▁Bụ	-10274
▁Ká	-10275
Will	-10276
ikar	-10277
resh	-10278
roll	-10279
▁HIV	-10280
▁Kin	-10281
▁Spe	-10282
▁Yau	-10283
▁ant	-10284
▁dín	-10285
▁odò	-10286
▁sìn	-10287
▁ẹgb	-10288
ength	-10289
idere	-10290
ozuzu	-10291
using	-10292
▁Oper	-10293
▁ball	-10294
▁bínú	-10295
▁guys	-10296
▁igbu	-10297
▁igbá	-10298
▁tọrọ	-10299
▁ìtẹ̀	-10300
▁ẹsẹ̀	-10301
acific	-10302
▁coast	-10303
▁daida	-10304
▁grass	-10305
▁motiv	-10306
▁nauyi	-10307
▁ogige	-10308
▁osote	-10309
▁stret	-10310
▁types	-10311
▁àsọyé	-10312
▁ịmata	-10313
ternoon	-10314
▁Afrịka	-10315
▁Creole	-10316
▁assess	-10317
▁basket	-10318
▁forgot	-10319
▁honour	-10320
▁humans	-10321
▁indeed	-10322
▁nwanne	-10323
▁reduce	-10324
▁tọ́rọ̀	-10325
▁umarci	-10326
▁winner	-10327
▁Ìrántí	-10328
▁ọgbọ́n	-10329
tificate	-10330
▁attacks	-10331
▁bagaden	-10332
▁illegal	-10333
▁parties	-10334
▁tafiyar	-10335
▁bẹ̀ẹ̀rẹ̀	-10336
▁explains	-10337
▁licenses	-10338
▁partners	-10339
▁pleasure	-10340
▁surround	-10341
▁candidate	-10342
▁àfẹsẹ̀gbá	-10343
▁ìkẹ́kọ̀ọ́	-10344
▁experiences	-10345
▁conscientious	-10346
26	-10347
3.	-10348
80	-10349
??	-10350
Gi	-10351
fè	-10352
Ọ̀	-10353
FCC	-10354
etu	-10355
ghá	-10356
ibe	-10357
tan	-10358
utt	-10359
èzí	-10360
▁eé	-10361
▁lẹ	-10362
adem	-10363
adio	-10364
arịọ	-10365
enni	-10366
lọtọ	-10367
ofin	-10368
osha	-10369
osta	-10370
part	-10371
that	-10372
ụọla	-10373
▁16,	-10374
▁26,	-10375
▁Get	-10376
▁Kas	-10377
▁Kun	-10378
▁aid	-10379
▁rib	-10380
Other	-10381
Psalm	-10382
build	-10383
icans	-10384
▁Shug	-10385
▁cool	-10386
▁cris	-10387
▁crow	-10388
▁gban	-10389
▁inte	-10390
▁reti	-10391
▁Count	-10392
▁Maazị	-10393
▁accur	-10394
▁dauke	-10395
▁exhib	-10396
▁kunne	-10397
▁minds	-10398
▁worse	-10399
mission	-10400
oshafat	-10401
reement	-10402
▁Author	-10403
▁Babban	-10404
▁Middle	-10405
▁fẹ̀sùn	-10406
▁modern	-10407
▁moving	-10408
▁nobody	-10409
▁tọhapụ	-10410
Whatever	-10411
▁Olùdarí	-10412
▁Pinnick	-10413
▁college	-10414
▁consent	-10415
▁dropped	-10416
▁ihuenyo	-10417
▁imagine	-10418
▁littafi	-10419
▁talatin	-10420
▁whoever	-10421
▁Ọ́fíìsì	-10422
▁innocent	-10423
▁provides	-10424
▁pátápátá	-10425
▁Washington	-10426
▁discussion	-10427
▁surveillance	-10428
▁circumstances	-10429
gò	-10430
rs	-10431
Fin	-10432
ogo	-10433
yín	-10434
òwò	-10435
▁3:	-10436
Take	-10437
enes	-10438
ilon	-10439
raft	-10440
tala	-10441
▁Alb	-10442
▁Cop	-10443
▁Hel	-10444
▁Tra	-10445
▁ajá	-10446
▁dee	-10447
▁dub	-10448
▁nād	-10449
▁psy	-10450
▁rọ́	-10451
▁yòó	-10452
▁ìyí	-10453
▁ṣéé	-10454
▁ẹyẹ	-10455
▁ịme	-10456
aphat	-10457
kwere	-10458
▁bege	-10459
▁kila	-10460
▁pure	-10461
▁rasu	-10462
▁ronú	-10463
▁shad	-10464
▁shel	-10465
▁vide	-10466
▁warm	-10467
▁zuba	-10468
▁Livai	-10469
▁Messi	-10470
▁Warri	-10471
▁bughi	-10472
▁dadin	-10473
▁divor	-10474
▁ilimi	-10475
▁pursu	-10476
▁ransa	-10477
▁sanyi	-10478
▁tẹ̀lé	-10479
▁Àjálù	-10480
▁ìdìbò	-10481
▁Branch	-10482
▁Irmiya	-10483
▁Kowane	-10484
▁Thomas	-10485
▁akpọrọ	-10486
▁arrang	-10487
▁fuskar	-10488
▁matsal	-10489
▁zahiri	-10490
▁zigara	-10491
▁ìdẹ́rù	-10492
▁Litinin	-10493
▁Pharise	-10494
▁Tickets	-10495
▁Turkish	-10496
▁conclud	-10497
▁consequ	-10498
▁instrum	-10499
▁weekend	-10500
▁ìkankan	-10501
versities	-10502
▁Virginia	-10503
▁annabawa	-10504
▁hannunsa	-10505
▁administr	-10506
▁afternoon	-10507
▁presented	-10508
▁forgiveness	-10509
TA	-10510
wi	-10511
yn	-10512
▁ù	-10513
Sup	-10514
lòó	-10515
mus	-10516
ƙai	-10517
acce	-10518
atts	-10519
ized	-10520
kịta	-10521
lere	-10522
lets	-10523
loye	-10524
ulẹ̀	-10525
well	-10526
ẹ̀dà	-10527
▁12,	-10528
▁Act	-10529
▁Gba	-10530
▁Ged	-10531
▁Ife	-10532
▁kow	-10533
▁orù	-10534
▁tie	-10535
▁ámá	-10536
▁ìwọ	-10537
▁ọtọ	-10538
anshi	-10539
bàjẹ́	-10540
eding	-10541
stood	-10542
ṣepọ̀	-10543
ọzara	-10544
▁Rund	-10545
▁asks	-10546
▁cher	-10547
▁drag	-10548
▁isẹ́	-10549
▁tuma	-10550
▁tụrụ	-10551
▁ígwè	-10552
Church	-10553
ataghị	-10554
icians	-10555
jected	-10556
▁About	-10557
▁Delta	-10558
▁Nasan	-10559
▁Roman	-10560
▁Syria	-10561
▁catch	-10562
▁doors	-10563
▁leads	-10564
▁makon	-10565
▁ndekọ	-10566
▁nzube	-10567
▁passa	-10568
▁sport	-10569
▁ịmụta	-10570
Christi	-10571
legates	-10572
▁SPYERA	-10573
▁dabere	-10574
▁endure	-10575
▁issued	-10576
▁ngwọta	-10577
▁reconc	-10578
▁rubutu	-10579
▁sector	-10580
ịntanetị	-10581
▁Lebanon	-10582
▁Premier	-10583
▁doctors	-10584
▁dokokin	-10585
▁granted	-10586
▁holding	-10587
▁payment	-10588
▁pleased	-10589
▁seventh	-10590
▁shaidar	-10591
▁treated	-10592
▁tụnyere	-10593
▁ìdárayá	-10594
▁although	-10595
▁birthday	-10596
▁designed	-10597
▁iniquity	-10598
▁maintain	-10599
▁neighbor	-10600
▁suddenly	-10601
▁tsarkaka	-10602
▁Francisco	-10603
▁happiness	-10604
▁listening	-10605
▁mutanensa	-10606
▁confidence	-10607
-8	-10608
36	-10609
bẹ	-10610
ea	-10611
App	-10612
azu	-10613
eci	-10614
edy	-10615
non	-10616
ìlú	-10617
ńdà	-10618
▁Ow	-10619
▁tù	-10620
▁ƙw	-10621
?"""	-10622
Once	-10623
Paul	-10624
aghọ	-10625
chem	-10626
comm	-10627
leep	-10628
vant	-10629
▁10,	-10630
▁Ikú	-10631
▁Jẹ́	-10632
▁dir	-10633
▁ken	-10634
▁ọdọ	-10635
First	-10636
abara	-10637
ctive	-10638
ikọta	-10639
kúnya	-10640
usiri	-10641
▁Mene	-10642
▁Tour	-10643
▁egbe	-10644
▁fama	-10645
▁hasn	-10646
▁lérò	-10647
▁tend	-10648
▁vain	-10649
Govern	-10650
celona	-10651
tivity	-10652
unning	-10653
▁Alkaw	-10654
▁Linda	-10655
▁beast	-10656
▁jiran	-10657
▁kawar	-10658
▁packa	-10659
▁roads	-10660
▁shout	-10661
▁stick	-10662
▁ƙarin	-10663
▁ɗansa	-10664
▁Ọ̀kan	-10665
▁ọkara	-10666
▁ụbụrụ	-10667
▁fought	-10668
▁haɗari	-10669
▁mmemme	-10670
▁umarni	-10671
▁ịchọta	-10672
▁Attaura	-10673
▁Charles	-10674
▁Creator	-10675
▁Mutanen	-10676
▁chọọchị	-10677
▁edition	-10678
▁hanyoyi	-10679
▁methods	-10680
▁olúborí	-10681
▁tonight	-10682
▁ọchịchọ	-10683
▁ọgwụgwụ	-10684
▁ọkọlọtọ	-10685
▁Province	-10686
▁starting	-10687
▁inúnibíni	-10688
▁oríṣiríṣi	-10689
▁appreciate	-10690
▁successful	-10691
▁Jehoshaphat	-10692
▁representative	-10693
nìí	-10694
èlò	-10695
ọdị	-10696
▁Aj	-10697
▁té	-10698
isẹ́	-10699
owed	-10700
veth	-10701
▁Aff	-10702
▁Cry	-10703
▁Hit	-10704
▁aya	-10705
▁gam	-10706
▁nch	-10707
▁síi	-10708
▁van	-10709
▁òún	-10710
▁Ẹnì	-10711
Local	-10712
acity	-10713
elata	-10714
▁Book	-10715
▁Gent	-10716
▁Love	-10717
▁Sign	-10718
▁Trin	-10719
▁arba	-10720
▁blow	-10721
▁keɓe	-10722
▁lots	-10723
▁meal	-10724
▁pick	-10725
▁push	-10726
▁rout	-10727
▁ọhịa	-10728
Wannan	-10729
gwugwu	-10730
yancin	-10731
▁Watch	-10732
▁béèrè	-10733
▁saman	-10734
▁sirri	-10735
▁ìpele	-10736
tìmọ́lé	-10737
▁Alhaji	-10738
▁Hebrew	-10739
▁Moscow	-10740
▁afford	-10741
▁agency	-10742
▁ahụike	-10743
▁bitter	-10744
▁career	-10745
▁nearly	-10746
▁reject	-10747
▁sabida	-10748
▁worthy	-10749
▁Ọkpara	-10750
▁akpụkpọ	-10751
▁duniyar	-10752
▁matches	-10753
▁ndabere	-10754
▁reflect	-10755
▁variety	-10756
▁vessels	-10757
▁ìṣàmúlò	-10758
▁Almighty	-10759
▁Download	-10760
▁injuries	-10761
▁shekarar	-10762
▁Uzbekistan	-10763
▁definitely	-10764
▁mahimmanci	-10765
?’	-10766
gà	-10767
pẹ	-10768
Mid	-10769
bec	-10770
but	-10771
ify	-10772
vin	-10773
òpù	-10774
▁NE	-10775
▁Om	-10776
▁Rù	-10777
gery	-10778
rees	-10779
utan	-10780
▁Ara	-10781
▁Cha	-10782
▁Cla	-10783
▁Tso	-10784
▁cig	-10785
▁egw	-10786
▁níp	-10787
▁èmi	-10788
▁ƙaz	-10789
acked	-10790
akika	-10791
eness	-10792
enger	-10793
etare	-10794
ọ́pọ̀	-10795
▁Kene	-10796
▁Star	-10797
▁UEFA	-10798
▁Yúró	-10799
▁dake	-10800
▁ebum	-10801
▁enyo	-10802
▁golf	-10803
▁rent	-10804
▁root	-10805
ashion	-10806
omatic	-10807
▁Biliy	-10808
▁bango	-10809
▁finds	-10810
▁gudun	-10811
▁karin	-10812
▁kinds	-10813
▁piece	-10814
▁renew	-10815
▁ruled	-10816
▁talks	-10817
▁trick	-10818
▁utter	-10819
isation	-10820
▁abokai	-10821
▁cleans	-10822
▁mkpesa	-10823
▁monkey	-10824
▁saukar	-10825
▁Yúróòpù	-10826
▁assured	-10827
▁contain	-10828
▁gidansa	-10829
▁matakin	-10830
▁produce	-10831
▁serving	-10832
▁Ìrànwọ́	-10833
Sometimes	-10834
▁directly	-10835
▁fẹ́rẹ̀ẹ́	-10836
▁kalmomin	-10837
▁messages	-10838
▁settings	-10839
▁àkọsílẹ̀	-10840
▁ìdẹ́rùbà	-10841
▁Governing	-10842
▁akọ̀ròyìn	-10843
▁buildings	-10844
▁mentioned	-10845
▁recognize	-10846
▁Biliyaminu	-10847
▁collection	-10848
▁experiment	-10849
▁experiments	-10850
▁investigation	-10851
48	-10852
Im	-10853
OM	-10854
4).	-10855
iny	-10856
osa	-10857
édé	-10858
▁53	-10859
▁65	-10860
▁9,	-10861
▁OK	-10862
anti	-10863
idar	-10864
ilee	-10865
mael	-10866
odin	-10867
olin	-10868
otal	-10869
ourn	-10870
▁Eme	-10871
▁Qur	-10872
▁Tel	-10873
▁Zeb	-10874
▁ice	-10875
▁vac	-10876
▁òbí	-10877
▁ẹlò	-10878
agues	-10879
gboyà	-10880
hamed	-10881
kwuru	-10882
viour	-10883
▁Ngwa	-10884
▁Step	-10885
▁Syri	-10886
▁agụụ	-10887
▁anyi	-10888
▁educ	-10889
▁kwan	-10890
▁kòkò	-10891
▁milk	-10892
▁vine	-10893
kọ̀kọ̀	-10894
rently	-10895
soever	-10896
▁Amale	-10897
▁Dutch	-10898
▁ended	-10899
▁ginin	-10900
▁kiwon	-10901
▁lying	-10902
▁plays	-10903
▁print	-10904
▁regul	-10905
▁solve	-10906
▁ƙarfe	-10907
Instead	-10908
▁Dókítà	-10909
▁Galili	-10910
▁Slovak	-10911
▁agaghi	-10912
▁asalin	-10913
▁asọmpi	-10914
▁crisis	-10915
▁desert	-10916
▁ebighi	-10917
▁hatred	-10918
▁mkpọrọ	-10919
▁tawali	-10920
iverpool	-10921
▁Galilee	-10922
▁Ishmael	-10923
▁ashamed	-10924
▁kasuwan	-10925
▁leaving	-10926
▁machine	-10927
▁matukar	-10928
▁proceed	-10929
▁traffic	-10930
▁nsụgharị	-10931
▁numerous	-10932
▁outbreak	-10933
▁overcome	-10934
▁solution	-10935
▁convicted	-10936
▁increasing	-10937
▁presidential	-10938
▁restrictions	-10939
Bl	-10940
Mo	-10941
OP	-10942
͕u	-10943
”;	-10944
.34	-10945
Get	-10946
Man	-10947
ker	-10948
kán	-10949
rac	-10950
usọ	-10951
▁Iy	-10952
adda	-10953
fact	-10954
hmed	-10955
ishe	-10956
opọ̀	-10957
tinú	-10958
zụga	-10959
áàmù	-10960
▁2:3	-10961
▁Bor	-10962
▁Fẹ́	-10963
▁Tal	-10964
▁Win	-10965
▁emb	-10966
▁kìí	-10967
▁pua	-10968
▁tim	-10969
▁uba	-10970
▁Àbú	-10971
▁ìbò	-10972
▁Ẹní	-10973
▁ịna	-10974
▁Ọnụ	-10975
▁ọgu	-10976
atawa	-10977
istic	-10978
kágbá	-10979
ronic	-10980
tiple	-10981
tọ̀ọ́	-10982
wáńdà	-10983
▁Akin	-10984
▁Know	-10985
▁Tabb	-10986
▁boss	-10987
▁gíga	-10988
▁haɗu	-10989
▁hors	-10990
▁kwal	-10991
▁láyé	-10992
▁samf	-10993
▁sans	-10994
▁wasi	-10995
▁weap	-10996
acious	-10997
icient	-10998
uments	-10999
▁Joash	-11000
▁Kogin	-11001
▁Techn	-11002
▁abụba	-11003
▁budur	-11004
▁drops	-11005
▁eaten	-11006
▁gafee	-11007
▁itace	-11008
▁motor	-11009
▁tsara	-11010
▁yàtọ̀	-11011
▁ìgbẹ́	-11012
▁ọ̀rẹ́	-11013
gbangba	-11014
▁Afrika	-11015
▁Office	-11016
▁active	-11017
▁adájọ́	-11018
▁festiv	-11019
▁iyalin	-11020
▁recogn	-11021
▁Àwòrán	-11022
▁Ọzọkwa	-11023
▁Control	-11024
▁Rùwáńdà	-11025
▁Samsung	-11026
▁abandon	-11027
▁counter	-11028
▁driving	-11029
▁heavens	-11030
▁mẹ́ẹ̀ẹ́	-11031
▁numbers	-11032
▁obvious	-11033
▁sunansa	-11034
▁wariyar	-11035
▁Research	-11036
▁attended	-11037
▁compared	-11038
▁precious	-11039
▁transfer	-11040
▁visitors	-11041
▁convinced	-11042
▁direction	-11043
▁fulfilled	-11044
▁particularly	-11045
1;	-11046
KE	-11047
RC	-11048
wú	-11049
.33	-11050
CHR	-11051
dee	-11052
ize	-11053
shi	-11054
udo	-11055
▁Lo	-11056
▁gọ	-11057
Both	-11058
agwo	-11059
chan	-11060
kina	-11061
lérí	-11062
puru	-11063
rast	-11064
▁Rog	-11065
▁Sem	-11066
▁ajé	-11067
▁dẹ̀	-11068
▁enh	-11069
▁ewé	-11070
▁ezé	-11071
▁kwụ	-11072
▁mpi	-11073
▁rèé	-11074
Which	-11075
heart	-11076
kọ̀wé	-11077
nugwu	-11078
oputa	-11079
oving	-11080
papọ̀	-11081
ville	-11082
ọnọdụ	-11083
▁Báwo	-11084
▁Eric	-11085
▁Femi	-11086
▁Fero	-11087
▁Home	-11088
▁Ngwá	-11089
▁Wall	-11090
▁ceci	-11091
▁diet	-11092
▁film	-11093
▁snow	-11094
▁Ṣètò	-11095
ísílẹ̀	-11096
▁2014,	-11097
▁2015,	-11098
▁Krist	-11099
▁Sanwo	-11100
▁cinye	-11101
▁cycle	-11102
▁datta	-11103
▁deeds	-11104
▁gwamn	-11105
▁ijeri	-11106
▁kalli	-11107
▁poker	-11108
▁procl	-11109
▁sauƙi	-11110
▁souls	-11111
▁stead	-11112
▁Ẹgbẹ́	-11113
aikatan	-11114
edience	-11115
eziokwu	-11116
▁akpali	-11117
▁akwado	-11118
▁eléyìí	-11119
▁figure	-11120
▁injury	-11121
▁kweere	-11122
▁stands	-11123
▁stayed	-11124
▁tongue	-11125
alátagbà	-11126
▁Gẹ̀ẹ́sì	-11127
▁Isiokwu	-11128
▁fahimta	-11129
▁labarai	-11130
▁magburu	-11131
▁sabbath	-11132
▁tickets	-11133
▁ụlọikpe	-11134
▁cancanci	-11135
▁director	-11136
▁kpamkpam	-11137
▁Barcelona	-11138
▁emergency	-11139
▁emotional	-11140
▁organized	-11141
▁relationships	-11142
La	-11143
OU	-11144
hà	-11145
Zan	-11146
col	-11147
otù	-11148
sè̩	-11149
sẹ́	-11150
▁Ep	-11151
▁ƙy	-11152
▁ọf	-11153
arịị	-11154
bọmi	-11155
efen	-11156
erra	-11157
gari	-11158
oolu	-11159
ẹ̀rọ	-11160
▁14,	-11161
▁1:2	-11162
▁Had	-11163
▁Imp	-11164
▁Mee	-11165
▁Nun	-11166
▁Pan	-11167
▁Sha	-11168
▁Tok	-11169
▁Zad	-11170
▁àkà	-11171
▁ịkụ	-11172
Phone	-11173
anian	-11174
enous	-11175
eweta	-11176
▁alle	-11177
▁blue	-11178
▁gāba	-11179
▁jobs	-11180
▁kwam	-11181
▁lapt	-11182
▁raid	-11183
▁rand	-11184
▁ƙarƙ	-11185
▁ịkwụ	-11186
Buhari	-11187
akpata	-11188
dárayá	-11189
erughị	-11190
iverse	-11191
olongo	-11192
person	-11193
rìbọmi	-11194
▁apply	-11195
▁cheap	-11196
▁consp	-11197
▁girgi	-11198
▁lẹ́bi	-11199
▁stake	-11200
▁Àbújá	-11201
▁àárín	-11202
anabata	-11203
▁Center	-11204
▁Kenean	-11205
▁allows	-11206
▁claims	-11207
▁courts	-11208
▁ethnic	-11209
▁faster	-11210
▁iyakar	-11211
▁lẹ́sẹ̀	-11212
▁secure	-11213
▁series	-11214
▁unless	-11215
▁ịkwụsị	-11216
▁Acetate	-11217
▁Babilon	-11218
▁akwukwọ	-11219
▁bishara	-11220
▁century	-11221
▁invited	-11222
▁Emmanuel	-11223
▁Gentiles	-11224
▁athletes	-11225
▁demonstr	-11226
▁distance	-11227
▁drinking	-11228
▁melamine	-11229
▁ntụkwasị	-11230
▁promises	-11231
▁properly	-11232
▁guarantee	-11233
▁persecution	-11234
NA	-11235
gọ	-11236
ṣu	-11237
Ndị	-11238
PFL	-11239
aho	-11240
enu	-11241
jud	-11242
nel	-11243
set	-11244
àjò	-11245
ǹda	-11246
▁NY	-11247
▁bù	-11248
Idan	-11249
Kada	-11250
Make	-11251
aded	-11252
berg	-11253
doro	-11254
empl	-11255
erub	-11256
miri	-11257
ootu	-11258
ukad	-11259
▁Bah	-11260
▁Ifá	-11261
▁Mis	-11262
▁Miz	-11263
▁Ndụ	-11264
▁Pri	-11265
▁Taa	-11266
▁ede	-11267
▁ven	-11268
▁Òkè	-11269
▁ìmú	-11270
▁Ọbụ	-11271
amber	-11272
cribe	-11273
liano	-11274
verty	-11275
warsa	-11276
▁Shai	-11277
▁Stat	-11278
▁Wane	-11279
▁clin	-11280
▁copy	-11281
▁dust	-11282
▁kayi	-11283
▁kókó	-11284
▁mkpọ	-11285
▁tib͕	-11286
▁wond	-11287
▁wuru	-11288
▁yard	-11289
chịchị	-11290
ukansu	-11291
ventus	-11292
▁Abdul	-11293
▁Usoro	-11294
▁costs	-11295
▁crazy	-11296
▁gefen	-11297
▁haifa	-11298
▁lẹ́ẹ̀	-11299
▁múlẹ̀	-11300
▁pages	-11301
▁shiru	-11302
▁slain	-11303
▁speed	-11304
▁turns	-11305
▁ìrírí	-11306
▁ọ̀sẹ̀	-11307
▁ụtụtụ	-11308
Ịntanet	-11309
▁bottom	-11310
▁famili	-11311
▁kalmar	-11312
▁memory	-11313
▁temper	-11314
▁ƙoƙari	-11315
▁Pacific	-11316
▁Runduna	-11317
▁Science	-11318
▁Witness	-11319
▁adopted	-11320
▁nkwenye	-11321
▁noticed	-11322
▁nādighi	-11323
▁poverty	-11324
▁rahoton	-11325
▁tournam	-11326
▁tsanani	-11327
▁kamfanin	-11328
▁location	-11329
▁musulmai	-11330
▁peaceful	-11331
▁roulette	-11332
▁Pharisees	-11333
▁Management	-11334
▁earthquake	-11335
▁television	-11336
▁ìrànlọ́wọ́	-11337
▁independent	-11338
Ai	-11339
ND	-11340
sà	-11341
Mat	-11342
asp	-11343
fẹ̀	-11344
ips	-11345
▁Mc	-11346
▁ep	-11347
▁ró	-11348
aker	-11349
atak	-11350
hand	-11351
idan	-11352
ston	-11353
uled	-11354
ófin	-11355
ẹ̀rù	-11356
▁13,	-11357
▁Hua	-11358
▁Tib	-11359
▁ate	-11360
▁tir	-11361
▁tow	-11362
▁ịnụ	-11363
.....	-11364
eduga	-11365
icing	-11366
uters	-11367
▁(199	-11368
▁Land	-11369
▁Viet	-11370
▁bana	-11371
▁pọ́n	-11372
▁rike	-11373
▁Ògún	-11374
▁ƙanƙ	-11375
▁ƙone	-11376
Middle	-11377
Romans	-11378
aranya	-11379
ekpebi	-11380
emeghe	-11381
hmedov	-11382
▁Abner	-11383
▁Bekee	-11384
▁Colom	-11385
▁Stars	-11386
▁armed	-11387
▁cloud	-11388
▁dokar	-11389
▁garga	-11390
▁karfe	-11391
▁manya	-11392
▁shafa	-11393
▁tsaro	-11394
▁vootu	-11395
ography	-11396
osoever	-11397
▁(2013)	-11398
▁Echere	-11399
▁Krista	-11400
▁Philip	-11401
▁expert	-11402
▁explan	-11403
▁hunger	-11404
▁makana	-11405
▁mmanya	-11406
▁murder	-11407
▁nmehie	-11408
▁phones	-11409
▁rubuce	-11410
▁tukuna	-11411
▁warned	-11412
▁zutere	-11413
jọ̀gbọ́n	-11414
▁Nebukad	-11415
▁advised	-11416
▁continu	-11417
▁dabbobi	-11418
▁science	-11419
▁àgbègbè	-11420
▁ịnọgide	-11421
cientists	-11422
▁Akhmedov	-11423
▁Language	-11424
▁Rehoboam	-11425
▁agencies	-11426
▁negative	-11427
▁passover	-11428
▁àtìmọ́lé	-11429
▁Executive	-11430
▁concerned	-11431
▁madawwami	-11432
▁makarantu	-11433
▁spokesman	-11434
▁Ubangijinmu	-11435
▁encouragement	-11436
2.	-11437
:)	-11438
LE	-11439
Ta	-11440
nị	-11441
bok	-11442
dẹ̀	-11443
eyi	-11444
ird	-11445
ndi	-11446
uya	-11447
ùwà	-11448
▁2.	-11449
▁Lí	-11450
Russ	-11451
aped	-11452
chad	-11453
ells	-11454
fies	-11455
hiop	-11456
họrọ	-11457
ngwa	-11458
odes	-11459
uits	-11460
zuru	-11461
▁25,	-11462
▁3.0	-11463
▁Ali	-11464
▁Exp	-11465
▁Kọ́	-11466
▁Mot	-11467
▁Ray	-11468
▁bib	-11469
▁chị	-11470
▁nje	-11471
▁yes	-11472
▁ìró	-11473
▁ẹbí	-11474
▁ụda	-11475
acing	-11476
ademy	-11477
iches	-11478
omach	-11479
xygen	-11480
▁Awka	-11481
▁Baal	-11482
▁Club	-11483
▁EFCC	-11484
▁Ster	-11485
▁Tupu	-11486
▁alam	-11487
▁dism	-11488
▁gbád	-11489
▁jawo	-11490
▁kunn	-11491
▁olóò	-11492
▁poll	-11493
▁west	-11494
▁ẹkùn	-11495
▁ịchị	-11496
inaụlọ	-11497
▁Abala	-11498
▁Kwara	-11499
▁Table	-11500
▁bride	-11501
▁colla	-11502
▁cruci	-11503
▁encry	-11504
▁feast	-11505
▁fever	-11506
▁forms	-11507
▁hoton	-11508
▁indig	-11509
▁jarab	-11510
▁mmadu	-11511
▁mélòó	-11512
▁veget	-11513
▁weebụ	-11514
gharịrị	-11515
▁Bethel	-11516
▁Duniya	-11517
▁Norway	-11518
▁arziki	-11519
▁corner	-11520
▁handed	-11521
▁hidima	-11522
▁highly	-11523
▁integr	-11524
▁kwanta	-11525
▁museum	-11526
▁sarkin	-11527
▁square	-11528
▁techni	-11529
▁wezụga	-11530
ectively	-11531
ximately	-11532
▁Crystal	-11533
▁Steroid	-11534
▁divided	-11535
▁maganin	-11536
▁mbipụta	-11537
▁nzọụkwụ	-11538
▁stomach	-11539
▁studies	-11540
▁wahalar	-11541
ẹẹgbẹ̀rún	-11542
▁Nebuchad	-11543
▁Williams	-11544
▁distress	-11545
▁rayuwata	-11546
▁somebody	-11547
▁practical	-11548
▁ƙarƙashin	-11549
▁compassion	-11550
▁everywhere	-11551
28	-11552
Ol	-11553
SA	-11554
oa	-11555
sé	-11556
mdi	-11557
pet	-11558
sit	-11559
▁FA	-11560
mgbe	-11561
outs	-11562
teen	-11563
upid	-11564
Àwọn	-11565
▁Bob	-11566
▁Cap	-11567
▁Hil	-11568
▁Iko	-11569
▁Mor	-11570
▁arg	-11571
▁ipa	-11572
▁rit	-11573
▁yẹ̀	-11574
▁ìlà	-11575
Ijipt	-11576
Sáàmù	-11577
akute	-11578
anned	-11579
ciful	-11580
iciye	-11581
reams	-11582
uburu	-11583
ursed	-11584
▁Bani	-11585
▁Barn	-11586
▁Dist	-11587
▁Kama	-11588
▁Kenn	-11589
▁Mkpa	-11590
▁Team	-11591
▁bike	-11592
▁doka	-11593
▁kọwa	-11594
itable	-11595
phones	-11596
▁Assur	-11597
▁Cross	-11598
▁Kawai	-11599
▁Lawan	-11600
▁aside	-11601
▁chari	-11602
▁ewere	-11603
▁faces	-11604
▁fansa	-11605
▁flock	-11606
▁fídíò	-11607
▁honor	-11608
▁jagor	-11609
▁kínní	-11610
▁oòrùn	-11611
hónúhàn	-11612
kwasịrị	-11613
ultural	-11614
▁(2011)	-11615
▁Dalung	-11616
▁Dutsen	-11617
▁Morocc	-11618
▁borrow	-11619
▁bottle	-11620
▁desper	-11621
▁gabiga	-11622
▁images	-11623
▁kedere	-11624
▁lalata	-11625
▁tempor	-11626
▁tsaron	-11627
▁wurina	-11628
lélógójì	-11629
▁employe	-11630
▁feeding	-11631
▁magance	-11632
▁ongoing	-11633
▁sauraro	-11634
▁weather	-11635
▁Security	-11636
▁behavior	-11637
▁capacity	-11638
▁hanyoyin	-11639
▁identity	-11640
▁shekarun	-11641
▁weakness	-11642
▁ọgaranya	-11643
▁insurance	-11644
▁otherwise	-11645
▁worldwide	-11646
▁importance	-11647
▁bangaskiyar	-11648
▁destruction	-11649
▁Constitution	-11650
zz	-11651
3).	-11652
jok	-11653
pín	-11654
san	-11655
▁(9	-11656
▁55	-11657
▁CH	-11658
▁Gw	-11659
▁IS	-11660
▁Ki	-11661
▁RC	-11662
▁jụ	-11663
2019	-11664
anna	-11665
down	-11666
geon	-11667
mara	-11668
othy	-11669
rets	-11670
ruit	-11671
▁Add	-11672
▁Eve	-11673
▁Láì	-11674
▁Ond	-11675
▁Pot	-11676
▁Wọn	-11677
▁Yin	-11678
▁dán	-11679
▁efe	-11680
▁emi	-11681
▁nin	-11682
▁níí	-11683
▁ohi	-11684
▁omí	-11685
▁ụra	-11686
ahapụ	-11687
akọwa	-11688
anced	-11689
antic	-11690
banye	-11691
belie	-11692
emede	-11693
ochie	-11694
omọkụ	-11695
oples	-11696
raimu	-11697
ọ̀wọ́	-11698
▁Back	-11699
▁Food	-11700
▁Game	-11701
▁Head	-11702
▁Mord	-11703
▁Nche	-11704
▁SARS	-11705
▁bawa	-11706
▁drew	-11707
▁earn	-11708
▁lest	-11709
▁nasa	-11710
▁nụrụ	-11711
▁pill	-11712
▁ring	-11713
▁sókè	-11714
▁tent	-11715
akwụsị	-11716
anches	-11717
▁Ahazi	-11718
▁Austr	-11719
▁aljan	-11720
▁champ	-11721
▁climb	-11722
▁discl	-11723
▁gates	-11724
▁injin	-11725
▁nwayi	-11726
▁photo	-11727
▁sassa	-11728
▁ɗayan	-11729
anọgide	-11730
▁(2010)	-11731
▁Master	-11732
▁accord	-11733
▁begins	-11734
▁belata	-11735
▁beside	-11736
▁bidoro	-11737
▁escape	-11738
▁farmer	-11739
▁ntinye	-11740
▁sounds	-11741
adịbeghị	-11742
elekwasị	-11743
▁Jonatan	-11744
▁appoint	-11745
▁consult	-11746
▁ikikere	-11747
▁incense	-11748
▁kayayya	-11749
▁observe	-11750
▁perspec	-11751
▁singing	-11752
▁tarihin	-11753
▁tempted	-11754
▁ƙaramin	-11755
ategories	-11756
▁Catholic	-11757
▁attitude	-11758
▁carrying	-11759
▁clothing	-11760
▁struggle	-11761
▁commended	-11762
▁extremely	-11763
▁generally	-11764
▁Onyeisiala	-11765
▁appearance	-11766
▁conviction	-11767
▁alternative	-11768
,)	-11769
mg	-11770
sc	-11771
ìb	-11772
CON	-11773
Kai	-11774
Pad	-11775
cus	-11776
guz	-11777
àmà	-11778
▁BY	-11779
▁UN	-11780
▁fọ	-11781
▁iw	-11782
gedé	-11783
ichu	-11784
ilia	-11785
otho	-11786
oval	-11787
ovic	-11788
owar	-11789
rink	-11790
uese	-11791
ugan	-11792
ymur	-11793
ọrin	-11794
▁Ahm	-11795
▁HTT	-11796
▁Ime	-11797
▁Oge	-11798
▁Rab	-11799
▁Sov	-11800
▁aja	-11801
▁chụ	-11802
▁etí	-11803
▁kpu	-11804
▁máà	-11805
▁sie	-11806
▁wai	-11807
ekiri	-11808
enezu	-11809
icide	-11810
phoon	-11811
ulate	-11812
wòsàn	-11813
▁Onwe	-11814
▁Rise	-11815
▁Sami	-11816
▁Tike	-11817
▁adìẹ	-11818
▁annu	-11819
▁defa	-11820
▁fake	-11821
▁fuel	-11822
▁gini	-11823
▁lóye	-11824
▁mama	-11825
▁namu	-11826
▁rice	-11827
▁tall	-11828
Isaiah	-11829
Posted	-11830
iyoyin	-11831
teries	-11832
urches	-11833
▁Adama	-11834
▁Nwosu	-11835
▁Tanki	-11836
▁ciyar	-11837
▁emume	-11838
▁furta	-11839
▁gbọ́n	-11840
▁psych	-11841
▁resol	-11842
▁thief	-11843
theless	-11844
▁Elisha	-11845
▁Heaven	-11846
▁Midian	-11847
▁forbid	-11848
▁haƙuri	-11849
▁incred	-11850
velation	-11851
▁Denmark	-11852
▁Ifraimu	-11853
▁beloved	-11854
▁ghọtara	-11855
▁measure	-11856
▁miliyan	-11857
▁omíyalé	-11858
▁privile	-11859
▁staying	-11860
▁wakporo	-11861
▁worried	-11862
kwekọrịta	-11863
▁Software	-11864
▁anataghị	-11865
▁chickens	-11866
▁forgiven	-11867
▁patience	-11868
▁pretrial	-11869
▁stronger	-11870
▁studying	-11871
▁responded	-11872
▁seriously	-11873
▁constantly	-11874
▁principles	-11875
▁understood	-11876
▁ìtàkùrọ̀sọ	-11877
▁Commissioner	-11878
:7	-11879
:9	-11880
RA	-11881
enụ	-11882
off	-11883
pan	-11884
rik	-11885
ums	-11886
ádà	-11887
ìwé	-11888
▁51	-11889
▁Aṣ	-11890
▁Mò	-11891
▁Pé	-11892
▁Wà	-11893
▁bã	-11894
▁bò	-11895
Come	-11896
fast	-11897
icho	-11898
indi	-11899
kind	-11900
ques	-11901
tali	-11902
what	-11903
▁Cal	-11904
▁Kán	-11905
▁Lou	-11906
▁Nas	-11907
▁Nov	-11908
▁Ven	-11909
▁ens	-11910
▁ngo	-11911
▁scr	-11912
▁uka	-11913
▁àpé	-11914
anetị	-11915
apụrụ	-11916
bonyi	-11917
esonụ	-11918
nuche	-11919
oices	-11920
utely	-11921
works	-11922
zania	-11923
▁Ikọ̀	-11924
▁Mafi	-11925
▁Nayi	-11926
▁Para	-11927
▁beer	-11928
▁bond	-11929
▁mand	-11930
▁mort	-11931
▁níbí	-11932
▁ohùn	-11933
▁rans	-11934
▁seat	-11935
▁soft	-11936
apụghị	-11937
emokwu	-11938
iction	-11939
makers	-11940
ocking	-11941
reness	-11942
▁2020.	-11943
▁First	-11944
▁Offic	-11945
▁boost	-11946
▁brand	-11947
▁foods	-11948
▁loyal	-11949
▁lunch	-11950
▁magaz	-11951
▁shigo	-11952
▁tayar	-11953
▁tsere	-11954
▁ìrètí	-11955
▁ọdịdị	-11956
▁Commun	-11957
▁Enwere	-11958
▁Serbia	-11959
▁behalf	-11960
▁danger	-11961
▁defend	-11962
▁enable	-11963
▁giciye	-11964
▁losing	-11965
▁niyyar	-11966
▁omeiwu	-11967
▁repair	-11968
▁shadow	-11969
▁stupid	-11970
▁supply	-11971
▁umeala	-11972
▁agbọghọ	-11973
▁cikinsa	-11974
▁citizen	-11975
▁cooking	-11976
▁karfafa	-11977
▁sayensị	-11978
▁committee	-11979
▁conducted	-11980
ìbánisọ̀rọ̀	-11981
▁facilities	-11982
▁remembered	-11983
▁mahaifiyarsa	-11984
EO	-11985
Ne	-11986
Us	-11987
fụ	-11988
ɓɓ	-11989
ṣó	-11990
2),	-11991
Pol	-11992
rún	-11993
̩lú	-11994
▁Ig	-11995
▁àn	-11996
aken	-11997
arịa	-11998
asẹ̀	-11999
emen	-12000
gram	-12001
illa	-12002
juju	-12003
kaci	-12004
tẹrù	-12005
ukwa	-12006
ƙila	-12007
▁195	-12008
▁Cec	-12009
▁Gwa	-12010
▁Igh	-12011
▁Lat	-12012
▁Orí	-12013
▁pig	-12014
▁àdú	-12015
Gener	-12016
amsin	-12017
awèrè	-12018
being	-12019
ching	-12020
elite	-12021
lùfẹ́	-12022
nsure	-12023
thate	-12024
yukan	-12025
▁2009	-12026
▁2010	-12027
▁Foto	-12028
▁Spec	-12029
▁baƙi	-12030
▁gawa	-12031
▁gbẹ̀	-12032
▁gidi	-12033
▁hapụ	-12034
▁hosp	-12035
▁ikò̩	-12036
▁kari	-12037
▁lips	-12038
▁rare	-12039
▁shed	-12040
▁toil	-12041
▁waya	-12042
▁yafi	-12043
▁yiwa	-12044
▁zaɓa	-12045
▁ùgwù	-12046
Labake	-12047
allese	-12048
mẹ́sìn	-12049
ụrụndụ	-12050
▁Amazi	-12051
▁Faris	-12052
▁Naanị	-12053
▁Síbẹ̀	-12054
▁White	-12055
▁azịza	-12056
▁banza	-12057
▁bawan	-12058
▁chann	-12059
▁crowd	-12060
▁dalib	-12061
▁filed	-12062
▁katin	-12063
▁larịị	-12064
▁pamọ́	-12065
▁shafe	-12066
▁snake	-12067
▁sympt	-12068
▁trump	-12069
▁ufọdu	-12070
▁watsa	-12071
▁zubar	-12072
▁ṣaájú	-12073
alities	-12074
anguage	-12075
enyocha	-12076
holders	-12077
▁Chibok	-12078
▁Ethiop	-12079
▁Tiketi	-12080
▁burden	-12081
▁deeply	-12082
▁google	-12083
▁hamsin	-12084
▁kulawa	-12085
▁mbanye	-12086
▁movies	-12087
▁mwakpo	-12088
▁proced	-12089
▁refuse	-12090
▁shewed	-12091
▁stress	-12092
▁titled	-12093
▁transf	-12094
▁useful	-12095
▁yọ̀ǹda	-12096
▁Bishara	-12097
▁Release	-12098
▁burning	-12099
▁cikinku	-12100
▁consist	-12101
▁greatly	-12102
▁níṣìírí	-12103
▁àyípadà	-12104
egosipụta	-12105
▁Mínísítà	-12106
▁Warriors	-12107
▁bambanci	-12108
▁familiar	-12109
▁haihuwar	-12110
▁kwenyere	-12111
▁mazaunan	-12112
▁ntụrụndụ	-12113
▁southern	-12114
▁steroids	-12115
▁Americans	-12116
▁Unlimited	-12117
▁celebrate	-12118
▁condemned	-12119
▁existence	-12120
▁performed	-12121
awèrèmẹ́sìn	-12122
▁colleagues	-12123
▁properties	-12124
▁generations	-12125
▁conversations	-12126
▁kòtẹ́milọ́rùn	-12127
4.	-12128
Up	-12129
họ	-12130
sp	-12131
Hey	-12132
bed	-12133
bla	-12134
ibu	-12135
kem	-12136
lig	-12137
yán	-12138
ǹbá	-12139
▁Bi	-12140
▁hi	-12141
chen	-12142
dìmú	-12143
enia	-12144
gēme	-12145
ilan	-12146
júwe	-12147
pret	-12148
rian	-12149
yric	-12150
▁Gab	-12151
▁Kib	-12152
▁Kim	-12153
▁Kọm	-12154
▁Lah	-12155
▁Moz	-12156
▁Ogb	-12157
▁Olú	-12158
▁Sir	-12159
▁Tor	-12160
▁Wil	-12161
▁asa	-12162
▁cul	-12163
▁rie	-12164
▁Ìlú	-12165
iders	-12166
rader	-12167
rough	-12168
which	-12169
▁Bala	-12170
▁Sime	-12171
▁achị	-12172
▁diss	-12173
▁dípò	-12174
▁file	-12175
▁grie	-12176
▁itat	-12177
▁kurk	-12178
▁leaf	-12179
▁saut	-12180
▁ìfor	-12181
▁ìgbè	-12182
agwoju	-12183
agwuru	-12184
aikata	-12185
jìnlẹ̀	-12186
omeiwu	-12187
▁Carol	-12188
▁cares	-12189
▁frame	-12190
▁gadon	-12191
▁gicci	-12192
▁guess	-12193
▁karbi	-12194
▁kogin	-12195
▁labor	-12196
▁mijin	-12197
▁naked	-12198
▁robot	-12199
▁tough	-12200
▁worst	-12201
▁ìparí	-12202
attered	-12203
ọdịnihu	-12204
▁Bayern	-12205
▁Gilgal	-12206
▁Ndigbo	-12207
▁Rivers	-12208
▁Romans	-12209
▁bright	-12210
▁degree	-12211
▁dollar	-12212
▁driver	-12213
▁prince	-12214
▁random	-12215
enezuela	-12216
▁Croatia	-12217
▁Society	-12218
▁biranen	-12219
▁gaggawa	-12220
▁seeking	-12221
▁selling	-12222
▁setting	-12223
▁spirits	-12224
agwurugwu	-12225
struction	-12226
▁existing	-12227
▁indicate	-12228
▁kindness	-12229
▁meetings	-12230
▁nchịkọta	-12231
▁okpomọkụ	-12232
▁resource	-12233
▁teachers	-12234
▁ìgbàlódé	-12235
▁Liverpool	-12236
▁immediate	-12237
▁kyakkyawa	-12238
▁connection	-12239
▁possession	-12240
▁tournament	-12241
?3	-12242
Op	-12243
dụ	-12244
ss	-12245
yd	-12246
ṣé	-12247
ORK	-12248
Per	-12249
Res	-12250
Yet	-12251
how	-12252
iku	-12253
pẹ̀	-12254
rea	-12255
ub͕	-12256
▁PS	-12257
▁Ud	-12258
▁oh	-12259
aram	-12260
back	-12261
enny	-12262
erto	-12263
onio	-12264
tutu	-12265
yele	-12266
ọcha	-12267
▁193	-12268
▁Mas	-12269
▁Yar	-12270
▁ab͕	-12271
▁alƙ	-12272
▁aud	-12273
▁iju	-12274
▁maa	-12275
▁Ìdá	-12276
▁òkú	-12277
▁ṣọ́	-12278
▁ịkp	-12279
thony	-12280
túnṣe	-12281
yarsu	-12282
yìnbó	-12283
▁Most	-12284
▁bamu	-12285
▁dari	-12286
▁hada	-12287
▁nwua	-12288
▁sada	-12289
▁samo	-12290
▁sear	-12291
▁sore	-12292
▁taro	-12293
▁tied	-12294
▁weep	-12295
▁ṣojú	-12296
enance	-12297
kíyèsí	-12298
mọ̀ràn	-12299
ocracy	-12300
ẹnugan	-12301
▁Frank	-12302
▁Josef	-12303
▁Pẹ̀lú	-12304
▁aboki	-12305
▁disgr	-12306
▁dogon	-12307
▁emewo	-12308
▁feels	-12309
▁pilot	-12310
▁smile	-12311
▁subur	-12312
▁tsufa	-12313
▁virus	-12314
▁ọ̀run	-12315
ìdárayá	-12316
▁Chalde	-12317
▁Gibeon	-12318
▁Yaushe	-12319
▁adding	-12320
▁akaebe	-12321
▁atúmọ̀	-12322
▁dandan	-12323
▁finger	-12324
▁gbàgbé	-12325
▁gotten	-12326
▁hakika	-12327
▁nnwale	-12328
▁thence	-12329
▁wezuga	-12330
▁zamani	-12331
▁ìṣẹ́jú	-12332
ghachiri	-12333
rẹ̀ẹ́jọ̀	-12334
▁Atlanta	-12335
▁alherin	-12336
▁belongs	-12337
▁enjoyed	-12338
▁koyarwa	-12339
▁kwadoro	-12340
▁passage	-12341
▁section	-12342
▁suspect	-12343
▁ìmìtìtì	-12344
▁Election	-12345
▁Moreover	-12346
▁bringing	-12347
▁feelings	-12348
▁lẹ́kọ̀ọ́	-12349
▁mílíọ̀nù	-12350
▁nkwalite	-12351
▁àṣekágbá	-12352
▁ṣèrànwọ́	-12353
▁agreement	-12354
▁kidnapped	-12355
▁somewhere	-12356
Translation	-12357
▁nkwekọrịta	-12358
▁institutions	-12359
-,	-12360
zh	-12361
Jul	-12362
aza	-12363
kur	-12364
ogi	-12365
orm	-12366
úrù	-12367
▁ND	-12368
▁wi	-12369
▁yu	-12370
▁ịd	-12371
ahia	-12372
ebus	-12373
fina	-12374
gụgụ	-12375
kàtí	-12376
onom	-12377
ótọ́	-12378
▁Dub	-12379
▁Eld	-12380
▁Hot	-12381
▁Joh	-12382
▁Lot	-12383
▁Rem	-12384
▁Sch	-12385
▁Sum	-12386
▁Ten	-12387
▁akọ	-12388
▁dak	-12389
▁dur	-12390
▁dịg	-12391
▁pẹ̀	-12392
▁ram	-12393
▁sul	-12394
Alamu	-12395
amụta	-12396
annin	-12397
elect	-12398
ginal	-12399
itage	-12400
limin	-12401
opard	-12402
wards	-12403
ziaka	-12404
▁Mill	-12405
▁Zede	-12406
▁huru	-12407
▁idon	-12408
▁jáwé	-12409
▁mawa	-12410
▁numf	-12411
▁rail	-12412
▁sall	-12413
▁salt	-12414
▁tire	-12415
▁tètè	-12416
▁wepụ	-12417
jọ̀kan	-12418
kọtara	-12419
othing	-12420
ronics	-12421
stance	-12422
▁Garba	-12423
▁abund	-12424
▁habit	-12425
▁immig	-12426
▁iyaye	-12427
▁kwado	-12428
▁plate	-12429
▁rigar	-12430
▁smoke	-12431
▁yours	-12432
▁ɗalib	-12433
Article	-12434
emetụta	-12435
▁Manase	-12436
▁Mobile	-12437
▁Nsogbu	-12438
▁asleep	-12439
▁assume	-12440
▁buying	-12441
▁haraji	-12442
▁judged	-12443
▁lalace	-12444
▁length	-12445
▁manage	-12446
▁perish	-12447
▁resist	-12448
▁sexual	-12449
▁update	-12450
▁àdúgbò	-12451
▁ẹnìkan	-12452
▁Morocco	-12453
▁Special	-12454
▁Stephen	-12455
▁ndinyom	-12456
▁restore	-12457
▁sarauta	-12458
careliano	-12459
▁Amorites	-12460
▁District	-12461
▁Juventus	-12462
▁accounts	-12463
▁exchange	-12464
▁supplies	-12465
▁yawancin	-12466
Everything	-12467
▁influence	-12468
▁supported	-12469
▁transform	-12470
▁recognized	-12471
▁restaurant	-12472
▁considering	-12473
▁governments	-12474
▁masquerader	-12475
▁communication	-12476
aj	-12477
ww	-12478
300	-12479
Sun	-12480
Wor	-12481
iah	-12482
opa	-12483
zab	-12484
áàá	-12485
ínà	-12486
▁3.	-12487
▁Dí	-12488
▁Ik	-12489
▁NA	-12490
▁Rí	-12491
▁fẹ	-12492
irac	-12493
look	-12494
mánì	-12495
ustr	-12496
wo̩n	-12497
ọmpị	-12498
▁(1,	-12499
▁Abụ	-12500
▁Eji	-12501
▁Gen	-12502
▁Okp	-12503
▁anx	-12504
▁arị	-12505
▁ast	-12506
▁dil	-12507
▁jam	-12508
▁kọm	-12509
▁mys	-12510
▁naz	-12511
Women	-12512
field	-12513
ourse	-12514
ẹnusọ	-12515
▁Fore	-12516
▁Kalm	-12517
▁Lára	-12518
▁Lédè	-12519
▁Líle	-12520
▁Násì	-12521
▁Tamb	-12522
▁Time	-12523
▁Vlad	-12524
▁Yowa	-12525
▁Zeal	-12526
▁acqu	-12527
▁argu	-12528
▁flee	-12529
▁gịnị	-12530
▁kina	-12531
▁mgbu	-12532
▁pand	-12533
▁Ọ̀gá	-12534
andina	-12535
▁Fẹ́mi	-12536
▁Saint	-12537
▁Turai	-12538
▁agadi	-12539
▁alága	-12540
▁baiwa	-12541
▁banga	-12542
▁chest	-12543
▁faịlụ	-12544
▁godly	-12545
▁idols	-12546
▁kenan	-12547
▁nwuru	-12548
▁nọmba	-12549
▁penal	-12550
▁rushe	-12551
▁tashe	-12552
▁tsari	-12553
▁yanar	-12554
▁ṣọṣẹ́	-12555
▁ọ̀dọ̀	-12556
aniyawa	-12557
anyanwu	-12558
atively	-12559
▁Asiria	-12560
▁Estado	-12561
▁Ezigbo	-12562
▁Korean	-12563
▁México	-12564
▁Teymur	-12565
▁betray	-12566
▁etinye	-12567
▁facing	-12568
▁flight	-12569
▁jidere	-12570
▁magani	-12571
▁okenye	-12572
▁tables	-12573
▁takwas	-12574
▁zitere	-12575
▁ìrántí	-12576
Nigerian	-12577
tìlẹ́yìn	-12578
▁Mutumin	-12579
▁default	-12580
▁experts	-12581
▁finding	-12582
▁fingers	-12583
▁hearken	-12584
▁keeping	-12585
▁license	-12586
▁sustain	-12587
▁àádọ́ta	-12588
▁ṣèbẹ̀wò	-12589
láàádọ́ta	-12590
▁Assuriya	-12591
▁Kristẹni	-12592
▁Naịjiria	-12593
▁Scandina	-12594
▁conflict	-12595
▁cultural	-12596
▁machines	-12597
▁wepụtara	-12598
▁ọmọnìyàn	-12599
Trenbolone	-12600
▁Hurricane	-12601
▁neighbors	-12602
▁Portuguese	-12603
▁kyakkyawar	-12604
▁punishment	-12605
▁translated	-12606
▁participants	-12607
▁approximately	-12608
EN	-12609
fl	-12610
wì	-12611
:22	-12612
Int	-12613
Sim	-12614
asọ	-12615
wọk	-12616
ọrị	-12617
ọzọ	-12618
ụnụ	-12619
▁Ro	-12620
Phot	-12621
arib	-12622
atal	-12623
azar	-12624
biya	-12625
emba	-12626
etam	-12627
even	-12628
onsu	-12629
onyo	-12630
oshe	-12631
pton	-12632
wárí	-12633
ùúrù	-12634
▁300	-12635
▁Out	-12636
▁Pra	-12637
▁ebu	-12638
▁iro	-12639
▁oro	-12640
▁sli	-12641
▁Òjò	-12642
▁ịda	-12643
allai	-12644
icket	-12645
ified	-12646
iyoyi	-12647
obere	-12648
stein	-12649
urịta	-12650
▁Fire	-12651
▁Mesh	-12652
▁Some	-12653
▁dala	-12654
▁ends	-12655
▁karo	-12656
▁magn	-12657
▁miki	-12658
▁narr	-12659
▁okay	-12660
▁ride	-12661
▁rigo	-12662
▁roof	-12663
▁subs	-12664
▁waka	-12665
▁yaud	-12666
▁ẹ̀dà	-12667
▁ẹ̀dá	-12668
▁ịgwa	-12669
▁ọgbọ	-12670
Should	-12671
Though	-12672
abetes	-12673
gọ́rùn	-12674
▁Angel	-12675
▁Balak	-12676
▁Kings	-12677
▁Share	-12678
▁Sites	-12679
▁abuse	-12680
▁concl	-12681
▁ememe	-12682
▁fashe	-12683
▁ghọrọ	-12684
▁gúúsù	-12685
▁họọrọ	-12686
▁knife	-12687
▁kudin	-12688
▁makiy	-12689
▁nkasi	-12690
▁perce	-12691
▁rabin	-12692
▁raina	-12693
▁votes	-12694
▁àìsàn	-12695
▁ọfụma	-12696
anyeghi	-12697
emption	-12698
gallese	-12699
utation	-12700
▁Simeon	-12701
▁Soviet	-12702
▁closer	-12703
▁divine	-12704
▁fadawa	-12705
▁golden	-12706
▁hadayu	-12707
▁haushi	-12708
▁iPhone	-12709
▁lọ́pọ̀	-12710
▁native	-12711
▁normal	-12712
▁posted	-12713
▁ransom	-12714
▁scared	-12715
▁survey	-12716
▁traged	-12717
▁values	-12718
▁verses	-12719
▁wurare	-12720
▁àfihàn	-12721
▁ìdánil	-12722
▁ìtumọ̀	-12723
▁òtítọ́	-12724
▁Jericho	-12725
▁concent	-12726
▁excited	-12727
▁fashion	-12728
▁kyautar	-12729
▁mafarki	-12730
▁nlekọta	-12731
▁organiz	-12732
▁perhaps	-12733
▁saurari	-12734
▁touched	-12735
▁verdict	-12736
▁watched	-12737
▁whither	-12738
▁ɓangare	-12739
ẹ̀hónúhàn	-12740
▁Wadannan	-12741
▁Yawancin	-12742
▁apostles	-12743
▁changing	-12744
▁esemokwu	-12745
▁relevant	-12746
▁statutes	-12747
▁Egyptians	-12748
▁Kiristoci	-12749
▁Venezuela	-12750
▁albarkace	-12751
▁blackjack	-12752
▁dedicated	-12753
▁determine	-12754
▁firstborn	-12755
▁satisfied	-12756
▁standards	-12757
▁witnesses	-12758
rastructure	-12759
▁absolutely	-12760
▁comfortable	-12761
▁ẹgbẹẹgbẹ̀rún	-12762
60	-12763
LI	-12764
nw	-12765
nù	-12766
.35	-12767
1),	-12768
200	-12769
hay	-12770
igi	-12771
iyo	-12772
sọ̀	-12773
win	-12774
zre	-12775
▁49	-12776
▁hà	-12777
▁s̩	-12778
Amer	-12779
Give	-12780
arun	-12781
domo	-12782
egas	-12783
okin	-12784
ouch	-12785
pent	-12786
toba	-12787
vork	-12788
will	-12789
▁Amb	-12790
▁Bun	-12791
▁Dev	-12792
▁Fed	-12793
▁Squ	-12794
▁UTC	-12795
▁aru	-12796
▁typ	-12797
▁àjò	-12798
Afric	-12799
Could	-12800
Never	-12801
Super	-12802
achel	-12803
anihu	-12804
ellig	-12805
erena	-12806
ersey	-12807
ommod	-12808
otein	-12809
rimin	-12810
ṣiṣẹ́	-12811
▁2007	-12812
▁borí	-12813
▁calm	-12814
▁eats	-12815
▁jiji	-12816
▁kamu	-12817
▁nayi	-12818
▁nání	-12819
▁runs	-12820
▁saki	-12821
▁slot	-12822
▁sumb	-12823
Nobody	-12824
rídìmú	-12825
vorkov	-12826
▁5,000	-12827
▁Boris	-12828
▁Chris	-12829
▁Inter	-12830
▁Siria	-12831
▁Vegas	-12832
▁Yowab	-12833
▁biyun	-12834
▁dájọ́	-12835
▁fúnra	-12836
▁gabas	-12837
▁grown	-12838
▁idozi	-12839
▁lyric	-12840
▁pè̩lú	-12841
▁sides	-12842
▁tàwọn	-12843
▁Àdúrà	-12844
emekarị	-12845
etarewa	-12846
▁(2014)	-12847
▁Amalek	-12848
▁Gernot	-12849
▁Kánádà	-12850
▁Munich	-12851
▁Sierra	-12852
▁Taiwan	-12853
▁asirin	-12854
▁ayyuka	-12855
▁breath	-12856
▁burúkú	-12857
▁excess	-12858
▁freely	-12859
▁gbádùn	-12860
▁hunter	-12861
▁insist	-12862
▁owners	-12863
▁àkúnya	-12864
▁Ụbọchị	-12865
ollywood	-12866
▁Anthony	-12867
▁Cecilia	-12868
▁advance	-12869
▁alfarwa	-12870
▁desires	-12871
▁kachasi	-12872
▁karatun	-12873
▁package	-12874
▁portion	-12875
▁quarter	-12876
▁session	-12877
▁tausayi	-12878
▁zukatan	-12879
▁ọdịnala	-12880
▁Musulmai	-12881
▁Original	-12882
▁Semonian	-12883
▁Suvorkov	-12884
▁Zaghachi	-12885
▁anointed	-12886
▁controll	-12887
▁creating	-12888
▁goodness	-12889
▁informed	-12890
▁kẹ́kọ̀ọ́	-12891
▁organize	-12892
▁policies	-12893
▁produced	-12894
▁symptoms	-12895
▁àtìlẹyìn	-12896
▁customers	-12897
▁estimated	-12898
▁scheduled	-12899
▁journalist	-12900
▁temptation	-12901
▁strengthened	-12902
▁ìforúkọsílẹ̀	-12903
▁ọlọ́rẹ̀ẹ́jọ̀	-12904
29	-12905
5.	-12906
OT	-12907
:28	-12908
Ger	-12909
Med	-12910
Nke	-12911
ọni	-12912
▁Iv	-12913
▁Mú	-12914
▁mà	-12915
▁èé	-12916
Each	-12917
díje	-12918
elle	-12919
inst	-12920
irka	-12921
itar	-12922
mere	-12923
onal	-12924
oshi	-12925
osie	-12926
shir	-12927
vine	-12928
whel	-12929
ụgba	-12930
▁20,	-12931
▁6:1	-12932
▁Gov	-12933
▁Jan	-12934
▁Maj	-12935
▁Rub	-12936
▁Ver	-12937
▁Yet	-12938
▁coc	-12939
▁huk	-12940
▁utọ	-12941
▁ƙir	-12942
▁ṣẹ́	-12943
▁ẹní	-12944
agọzi	-12945
asant	-12946
atter	-12947
itors	-12948
ocket	-12949
olves	-12950
urely	-12951
urufú	-12952
virus	-12953
▁Ahaz	-12954
▁Burt	-12955
▁Carl	-12956
▁Emer	-12957
▁afẹ́	-12958
▁aton	-12959
▁bàbá	-12960
▁darí	-12961
▁gbal	-12962
▁gizo	-12963
▁hari	-12964
▁hars	-12965
▁hole	-12966
▁menu	-12967
▁nada	-12968
▁para	-12969
▁péré	-12970
▁rank	-12971
▁samp	-12972
▁yabo	-12973
▁ziga	-12974
▁òpin	-12975
▁ụnya	-12976
chichi	-12977
ófinró	-12978
▁Benin	-12979
▁Milan	-12980
▁Queen	-12981
▁Setan	-12982
▁Yusuf	-12983
▁error	-12984
▁gaara	-12985
▁ikuku	-12986
▁inaug	-12987
▁kalma	-12988
▁kasan	-12989
▁naman	-12990
▁sauko	-12991
▁taste	-12992
▁tsare	-12993
▁wheel	-12994
▁àpérò	-12995
icester	-12996
▁Greece	-12997
▁Ighalo	-12998
▁Meyasa	-12999
▁Number	-13000
▁Willie	-13001
▁cigaba	-13002
▁dabara	-13003
▁dreams	-13004
▁healed	-13005
▁hospit	-13006
▁jinƙai	-13007
▁karɓar	-13008
▁kwanan	-13009
▁mójútó	-13010
▁netwọk	-13011
▁shagon	-13012
▁shigar	-13013
▁tarihi	-13014
▁unable	-13015
▁waited	-13016
▁wákàtí	-13017
........	-13018
▁Abimele	-13019
▁Antonio	-13020
▁Austria	-13021
▁Blessed	-13022
▁anabata	-13023
▁apostle	-13024
▁bincika	-13025
▁classes	-13026
▁enforce	-13027
▁nípasẹ̀	-13028
▁watanni	-13029
▁ƙaunaci	-13030
▁Samariya	-13031
▁accommod	-13032
▁closures	-13033
▁guidance	-13034
▁olólùfẹ́	-13035
▁ìgbẹ́jọ́	-13036
▁ƙungiyar	-13037
▁agbófinró	-13038
▁ekwesịghị	-13039
▁fuskantar	-13040
▁practices	-13041
▁Farisiyawa	-13042
▁makarantar	-13043
▁situations	-13044
▁wickedness	-13045
▁certificate	-13046
▁ndagwurugwu	-13047
27	-13048
33	-13049
CA	-13050
MO	-13051
fá	-13052
sl	-13053
sú	-13054
yu	-13055
CHA	-13056
Eme	-13057
Sus	-13058
guo	-13059
kel	-13060
oti	-13061
rze	-13062
tán	-13063
uji	-13064
órd	-13065
▁Hu	-13066
▁Nọ	-13067
▁rú	-13068
Mean	-13069
alis	-13070
buru	-13071
ixel	-13072
kewa	-13073
kins	-13074
mọye	-13075
rzej	-13076
ọọla	-13077
▁31,	-13078
▁Die	-13079
▁Lai	-13080
▁Lẹ́	-13081
▁Mod	-13082
▁Pis	-13083
▁Pue	-13084
▁apa	-13085
▁ari	-13086
▁aṣí	-13087
▁ere	-13088
▁iti	-13089
▁mob	-13090
▁por	-13091
▁wra	-13092
▁àbí	-13093
▁èsì	-13094
Three	-13095
acher	-13096
adise	-13097
alous	-13098
ategy	-13099
erves	-13100
range	-13101
▁Cook	-13102
▁Jama	-13103
▁Ondo	-13104
▁RCGP	-13105
▁aike	-13106
▁akẹẹ	-13107
▁boat	-13108
▁hawa	-13109
▁heal	-13110
▁ikpé	-13111
▁ment	-13112
▁reli	-13113
▁sets	-13114
▁slay	-13115
▁tank	-13116
▁tash	-13117
▁tiny	-13118
▁tsab	-13119
▁tsib	-13120
▁ákwà	-13121
gbogbo	-13122
ildren	-13123
órdico	-13124
▁Adití	-13125
▁Irina	-13126
▁Peace	-13127
▁Psalm	-13128
▁arewa	-13129
▁fresh	-13130
▁gashi	-13131
▁ignor	-13132
▁kwụrụ	-13133
▁kyawa	-13134
▁matsa	-13135
▁occup	-13136
▁react	-13137
▁udomo	-13138
Finally	-13139
ategory	-13140
▁Bashan	-13141
▁Peters	-13142
▁Puebla	-13143
▁Sauran	-13144
▁Tsohon	-13145
▁Zabura	-13146
▁adighi	-13147
▁arrive	-13148
▁aṣáájú	-13149
▁forúkọ	-13150
▁hakuri	-13151
▁kamuwa	-13152
▁lesson	-13153
▁mgbalị	-13154
▁níwájú	-13155
▁oníṣẹ́	-13156
▁oxygen	-13157
▁sinful	-13158
▁tablet	-13159
▁turare	-13160
▁Ìtúmọ̀	-13161
▁ọnụego	-13162
language	-13163
tainment	-13164
▁Turanci	-13165
▁antiguo	-13166
▁bayanin	-13167
▁concept	-13168
▁divorce	-13169
▁growing	-13170
▁kwalite	-13171
▁minimum	-13172
▁totally	-13173
▁yarinya	-13174
▁ziyarci	-13175
▁Hezekiya	-13176
▁Progress	-13177
▁Shugaban	-13178
▁alágbára	-13179
▁buruburu	-13180
▁heavenly	-13181
▁icheiche	-13182
▁miracles	-13183
▁nchọpụta	-13184
▁ngagharị	-13185
▁northern	-13186
▁pregnant	-13187
▁stranger	-13188
▁tsananin	-13189
▁zuciyata	-13190
láàádọ́rin	-13191
▁awareness	-13192
▁judgments	-13193
▁expression	-13194
▁identified	-13195
▁registered	-13196
▁supplement	-13197
▁tsuntsayen	-13198
▁journalists	-13199
▁represented	-13200
40	-13201
gā	-13202
ńd	-13203
Try	-13204
cks	-13205
efe	-13206
fes	-13207
gic	-13208
ibo	-13209
líà	-13210
ntụ	-13211
pak	-13212
pha	-13213
zuo	-13214
èsè	-13215
ùnú	-13216
▁EU	-13217
▁eh	-13218
▁nù	-13219
-19.	-13220
Cont	-13221
imir	-13222
ione	-13223
nuka	-13224
oked	-13225
osit	-13226
rupt	-13227
síkò	-13228
uien	-13229
ulla	-13230
yemi	-13231
▁Acc	-13232
▁Muh	-13233
▁Oko	-13234
▁RSC	-13235
▁Rut	-13236
▁fra	-13237
▁lit	-13238
▁rum	-13239
▁rịọ	-13240
▁ọlu	-13241
allow	-13242
ellow	-13243
esote	-13244
ician	-13245
lines	-13246
ninsu	-13247
osiah	-13248
overy	-13249
usive	-13250
yànjú	-13251
▁Dari	-13252
▁Daya	-13253
▁Ezra	-13254
▁bomb	-13255
▁cops	-13256
▁edge	-13257
▁mash	-13258
▁nose	-13259
▁tala	-13260
▁taru	-13261
▁Ìtún	-13262
▁Ònye	-13263
▁àgọ́	-13264
Listen	-13265
gbàgbé	-13266
ughter	-13267
weight	-13268
▁2017.	-13269
▁Video	-13270
▁Water	-13271
▁brows	-13272
▁bulie	-13273
▁crown	-13274
▁curse	-13275
▁falls	-13276
▁fuska	-13277
▁greet	-13278
▁isass	-13279
▁kaadị	-13280
▁koyon	-13281
▁kyaut	-13282
▁salad	-13283
▁sharp	-13284
▁stars	-13285
▁tiwọn	-13286
▁ọṅụṅụ	-13287
ammacin	-13288
attafai	-13289
chitere	-13290
egbochi	-13291
▁Tafiya	-13292
▁acting	-13293
▁alụmdi	-13294
▁amaala	-13295
▁assemb	-13296
▁compar	-13297
▁defeat	-13298
▁masana	-13299
▁natara	-13300
▁ntọala	-13301
▁orders	-13302
▁tsatts	-13303
▁victim	-13304
▁ìkànnì	-13305
▁Academy	-13306
▁Bolivia	-13307
▁appears	-13308
▁examine	-13309
▁foolish	-13310
▁gabansa	-13311
▁holiday	-13312
▁nchịkwa	-13313
▁planned	-13314
▁regions	-13315
▁reviews	-13316
▁revised	-13317
▁saurayi	-13318
▁surgery	-13319
▁testing	-13320
▁violent	-13321
▁warning	-13322
▁ọnwụnwa	-13323
egwuregwu	-13324
▁assembly	-13325
▁captured	-13326
▁daidaita	-13327
▁ezinaụlọ	-13328
▁jupụtara	-13329
▁purchase	-13330
lélọ́gbọ̀n	-13331
▁Ekekọrịta	-13332
▁apartment	-13333
▁foundation	-13334
▁kilometers	-13335
▁universities	-13336
!)	-13337
Te	-13338
UN	-13339
iw	-13340
kt	-13341
td	-13342
.—2	-13343
Imp	-13344
Mul	-13345
b͕ọ	-13346
ctu	-13347
fọn	-13348
kad	-13349
nec	-13350
oba	-13351
sim	-13352
sin	-13353
▁Ee	-13354
▁Iz	-13355
▁Kọ	-13356
▁ky	-13357
▁ò̩	-13358
agan	-13359
ager	-13360
aija	-13361
chik	-13362
guay	-13363
jide	-13364
orne	-13365
tong	-13366
unsa	-13367
ụntụ	-13368
▁11,	-13369
▁Aha	-13370
▁Hal	-13371
▁Pap	-13372
▁anē	-13373
▁aṣà	-13374
▁cub	-13375
▁doo	-13376
▁flu	-13377
▁izi	-13378
▁jan	-13379
▁sky	-13380
▁spl	-13381
▁sóó	-13382
arawa	-13383
chang	-13384
dánwò	-13385
erved	-13386
kalen	-13387
karịa	-13388
lehem	-13389
nikov	-13390
ulous	-13391
▁Also	-13392
▁Enwe	-13393
▁Hung	-13394
▁Jean	-13395
▁Nwan	-13396
▁Thai	-13397
▁bụbu	-13398
▁dafa	-13399
▁daji	-13400
▁ease	-13401
▁flow	-13402
▁haye	-13403
▁klas	-13404
▁liqu	-13405
▁lụrụ	-13406
▁soup	-13407
▁sójà	-13408
▁tort	-13409
▁vice	-13410
▁Ìpín	-13411
▁Òfin	-13412
▁ɗora	-13413
Number	-13414
idency	-13415
olanut	-13416
▁HTTPS	-13417
▁Sport	-13418
▁Stand	-13419
▁admit	-13420
▁arịrị	-13421
▁bishi	-13422
▁chebe	-13423
▁clubs	-13424
▁dabba	-13425
▁delay	-13426
▁drown	-13427
▁drunk	-13428
▁eégún	-13429
▁fault	-13430
▁horns	-13431
▁jerin	-13432
▁ruhun	-13433
▁ruler	-13434
▁shiri	-13435
▁slave	-13436
▁teams	-13437
▁theme	-13438
▁yanka	-13439
▁Èèyàn	-13440
▁àríwá	-13441
akistan	-13442
ụrụngwa	-13443
▁Donald	-13444
▁Efraim	-13445
▁Hannah	-13446
▁Josiah	-13447
▁Lọ́dún	-13448
▁abomin	-13449
▁advert	-13450
▁babies	-13451
▁beasts	-13452
▁examin	-13453
▁gaming	-13454
▁ignore	-13455
▁insult	-13456
▁mechan	-13457
▁scream	-13458
▁unlike	-13459
▁videos	-13460
atụgharị	-13461
poration	-13462
▁Airport	-13463
▁battery	-13464
▁circumc	-13465
▁cowries	-13466
▁dismiss	-13467
▁edemede	-13468
▁escaped	-13469
▁gbochie	-13470
▁kpuchie	-13471
▁muscles	-13472
▁ntanetị	-13473
▁plastic	-13474
▁sending	-13475
▁thanked	-13476
▁threats	-13477
▁tsorata	-13478
▁vehicle	-13479
▁ọgwụgwọ	-13480
▁Colombia	-13481
▁Damascus	-13482
▁Moskalen	-13483
▁Paraguay	-13484
▁akẹẹgbẹ́	-13485
▁anywhere	-13486
▁believer	-13487
▁churches	-13488
▁examples	-13489
▁kwatanta	-13490
▁nǹkankan	-13491
▁surprise	-13492
▁universe	-13493
▁Jehoiakim	-13494
▁Macedonia	-13495
▁ebumnuche	-13496
▁evacuated	-13497
▁locations	-13498
▁receiving	-13499
▁separated	-13500
▁conference	-13501
▁Scandinavia	-13502
▁perspective	-13503
▁instructions	-13504
Qu	-13505
WS	-13506
lt	-13507
ón	-13508
2).	-13509
AMB	-13510
Luc	-13511
Rec	-13512
Reg	-13513
alk	-13514
bab	-13515
àbà	-13516
▁jì	-13517
▁pẹ	-13518
▁àṣ	-13519
▁ṣá	-13520
anwa	-13521
etic	-13522
from	-13523
gile	-13524
idon	-13525
keth	-13526
rend	-13527
udan	-13528
ịhịa	-13529
▁Ale	-13530
▁Bad	-13531
▁Dog	-13532
▁Yer	-13533
▁alf	-13534
▁bẹ́	-13535
▁dẹ́	-13536
▁eri	-13537
▁err	-13538
▁mic	-13539
▁mwe	-13540
▁nit	-13541
▁ntà	-13542
▁nur	-13543
▁rab	-13544
▁unc	-13545
▁ìṣe	-13546
▁ọjà	-13547
▁Ụzọ	-13548
garia	-13549
iveth	-13550
ombok	-13551
takes	-13552
tìgbà	-13553
▁1999	-13554
▁Ahịa	-13555
▁Cons	-13556
▁Have	-13557
▁Joel	-13558
▁Jáde	-13559
▁Kara	-13560
▁Kedu	-13561
▁Kina	-13562
▁Màmá	-13563
▁Piff	-13564
▁Vice	-13565
▁bing	-13566
▁casu	-13567
▁chee	-13568
▁coat	-13569
▁duty	-13570
▁furn	-13571
▁fāɗi	-13572
▁genu	-13573
▁goat	-13574
▁heed	-13575
▁igbó	-13576
▁jail	-13577
▁kurs	-13578
▁mart	-13579
▁ngwụ	-13580
▁nike	-13581
▁nira	-13582
▁rund	-13583
▁sale	-13584
▁sati	-13585
▁tace	-13586
▁tips	-13587
▁umur	-13588
▁vote	-13589
▁wúlò	-13590
Matiyu	-13591
olland	-13592
▁2012,	-13593
▁Board	-13594
▁Iliya	-13595
▁Mmadụ	-13596
▁Mowab	-13597
▁Nebat	-13598
▁abide	-13599
▁advoc	-13600
▁agụma	-13601
▁bones	-13602
▁holds	-13603
▁kulle	-13604
▁kwale	-13605
▁kíkún	-13606
▁lashe	-13607
▁liked	-13608
▁usual	-13609
▁wụnye	-13610
▁yanjú	-13611
▁yasan	-13612
Nórdico	-13613
azọpụta	-13614
▁Samson	-13615
▁anyway	-13616
▁assign	-13617
▁biarue	-13618
▁cherub	-13619
▁corona	-13620
▁demons	-13621
▁engage	-13622
▁famine	-13623
▁fright	-13624
▁humble	-13625
▁lambar	-13626
▁likita	-13627
▁plenty	-13628
▁reveal	-13629
▁rivers	-13630
▁sojoji	-13631
▁wetara	-13632
nigbàgbé	-13633
▁Adamawa	-13634
▁Maryamu	-13635
▁Timothy	-13636
▁amalite	-13637
▁amfanin	-13638
▁factors	-13639
▁helpful	-13640
▁kitchen	-13641
▁kwụsịrị	-13642
▁promote	-13643
▁tufafin	-13644
▁western	-13645
▁ọdịnaya	-13646
▁Gọọmentị	-13647
▁Jeremaia	-13648
▁Vladimir	-13649
▁accurate	-13650
▁cleaning	-13651
▁dattawan	-13652
▁glorious	-13653
▁goalkeep	-13654
▁inspired	-13655
▁intended	-13656
▁keyboard	-13657
▁manifest	-13658
▁mgbapụta	-13659
▁pandemic	-13660
▁selected	-13661
▁Burtaniya	-13662
▁karkashin	-13663
▁literally	-13664
▁mgbagwoju	-13665
▁solutions	-13666
▁traveling	-13667
▁Australian	-13668
▁photograph	-13669
▁threatened	-13670
▁underlying	-13671
▁ụlọakwụkwọ	-13672
▁consequences	-13673
▁governorship	-13674
-.	-13675
MT	-13676
TI	-13677
pi	-13678
ão	-13679
ƙw	-13680
”.	-13681
5),	-13682
7).	-13683
:00	-13684
:10	-13685
Pre	-13686
Sad	-13687
box	-13688
mes	-13689
míì	-13690
ofè	-13691
ras	-13692
sta	-13693
tai	-13694
xed	-13695
ẹnẹ	-13696
ẹ́n	-13697
Comm	-13698
alls	-13699
held	-13700
itin	-13701
jiya	-13702
nụba	-13703
oche	-13704
tòsí	-13705
àngó	-13706
ƙasa	-13707
▁Div	-13708
▁Eff	-13709
▁Emp	-13710
▁Max	-13711
▁See	-13712
▁eti	-13713
▁sci	-13714
▁zag	-13715
▁ụjọ	-13716
▁ụkọ	-13717
Among	-13718
China	-13719
Julia	-13720
Opens	-13721
ading	-13722
admin	-13723
amihe	-13724
ariah	-13725
atsun	-13726
ecute	-13727
edozi	-13728
eduzi	-13729
gbara	-13730
ingly	-13731
ittle	-13732
reesị	-13733
ropol	-13734
ukaki	-13735
ushen	-13736
ọ́lẹ̀	-13737
▁Care	-13738
▁Code	-13739
▁Hist	-13740
▁Hope	-13741
▁Miss	-13742
▁Ukwu	-13743
▁Wild	-13744
▁excl	-13745
▁hadn	-13746
▁heav	-13747
▁igbe	-13748
▁juru	-13749
▁kudu	-13750
▁nama	-13751
▁ogbo	-13752
▁pool	-13753
▁shim	-13754
▁wo̩n	-13755
▁ọbịa	-13756
▁ọkpọ	-13757
▁ọ̀lẹ	-13758
abolan	-13759
batara	-13760
lights	-13761
uwansu	-13762
íṣẹ̀ẹ́	-13763
▁Coast	-13764
▁Colle	-13765
▁Metat	-13766
▁Nadal	-13767
▁Quote	-13768
▁accus	-13769
▁apụta	-13770
▁brass	-13771
▁entit	-13772
▁faced	-13773
▁ghọta	-13774
▁honey	-13775
▁igosi	-13776
▁káàdì	-13777
▁mbara	-13778
▁nlere	-13779
▁oyiyi	-13780
▁rates	-13781
▁risen	-13782
▁scene	-13783
▁score	-13784
▁spoil	-13785
▁thick	-13786
▁trend	-13787
▁yòókù	-13788
▁ọtutu	-13789
General	-13790
Whether	-13791
essions	-13792
gbátẹrù	-13793
liament	-13794
▁Indian	-13795
▁agbata	-13796
▁aghara	-13797
▁ahịhịa	-13798
▁alamar	-13799
▁bother	-13800
▁fields	-13801
▁fushin	-13802
▁gumaka	-13803
▁hapụrụ	-13804
▁irúfẹ́	-13805
▁kòkòro	-13806
▁menene	-13807
▁pegedé	-13808
▁prices	-13809
▁strict	-13810
▁Ìtúnwí	-13811
▁Eleazar	-13812
▁Maryama	-13813
▁Nwaanyị	-13814
▁Zealand	-13815
▁akụnụba	-13816
▁ancient	-13817
▁confirm	-13818
▁dakatar	-13819
▁heathen	-13820
▁jealous	-13821
▁kimiyya	-13822
▁mankind	-13823
▁sararin	-13824
▁suicide	-13825
▁twitter	-13826
▁Ìpínlẹ̀	-13827
▁àṣeyọrí	-13828
▁Ọlọ́rọ̀	-13829
▁ọganihu	-13830
Christian	-13831
ependence	-13832
niversary	-13833
▁Bulgaria	-13834
▁Slovakia	-13835
▁confused	-13836
▁discover	-13837
▁diseases	-13838
▁exciting	-13839
▁fuskanci	-13840
▁heritage	-13841
▁igbákejì	-13842
▁programm	-13843
▁sansanin	-13844
▁takardar	-13845
▁treasure	-13846
▁visiting	-13847
▁ìpolongo	-13848
▁ìṣísílẹ̀	-13849
▁fundament	-13850
▁Metatrader	-13851
▁Moskalenko	-13852
▁regardless	-13853
▁supporting	-13854
▁encouraging	-13855
▁recommended	-13856
▁Progressives	-13857
▁translations	-13858
Gr	-13859
▁ṅ	-13860
9).	-13861
PDP	-13862
Rel	-13863
aṅụ	-13864
jer	-13865
▁MT	-13866
▁NU	-13867
▁ih	-13868
▁lù	-13869
▁sè	-13870
Luke	-13871
abas	-13872
andu	-13873
gede	-13874
gers	-13875
olen	-13876
rank	-13877
ààbò	-13878
▁24,	-13879
▁400	-13880
▁Det	-13881
▁Iná	-13882
▁Pop	-13883
▁Tom	-13884
▁Vol	-13885
▁eje	-13886
▁gwụ	-13887
▁jah	-13888
▁nza	-13889
▁sáb	-13890
▁wet	-13891
▁ìgb	-13892
▁Ọma	-13893
David	-13894
aysia	-13895
emeso	-13896
inder	-13897
▁2000	-13898
▁Ashe	-13899
▁Here	-13900
▁Kedụ	-13901
▁List	-13902
▁Plan	-13903
▁Work	-13904
▁Yayi	-13905
▁ashe	-13906
▁eggs	-13907
▁hero	-13908
▁kifi	-13909
▁mail	-13910
▁màmá	-13911
▁oath	-13912
▁pron	-13913
▁quit	-13914
▁tudd	-13915
▁tóbi	-13916
Online	-13917
ctions	-13918
gharia	-13919
ornado	-13920
▁Bazan	-13921
▁Hakan	-13922
▁Obama	-13923
▁adequ	-13924
▁agric	-13925
▁aturu	-13926
▁bàjẹ́	-13927
▁dịkwa	-13928
▁fixed	-13929
▁haife	-13930
▁haska	-13931
▁ifufe	-13932
▁karùn	-13933
▁kpara	-13934
▁ojuju	-13935
▁ojúṣe	-13936
▁plane	-13937
▁ròyìn	-13938
▁shift	-13939
▁solid	-13940
▁threw	-13941
▁tirẹ̀	-13942
▁zargi	-13943
▁ìfara	-13944
akụziri	-13945
anciyar	-13946
▁Ebonyi	-13947
▁addini	-13948
▁bautar	-13949
▁camera	-13950
▁hidden	-13951
▁ikilis	-13952
▁itoolu	-13953
▁jimawa	-13954
▁judges	-13955
▁lokuta	-13956
▁lọ́rùn	-13957
▁poison	-13958
▁slight	-13959
▁slowly	-13960
▁tabbas	-13961
▁tumaki	-13962
▁ọgọ́ta	-13963
iliation	-13964
▁Daniyel	-13965
▁Jessica	-13966
▁affairs	-13967
▁cikinta	-13968
▁declare	-13969
▁seconds	-13970
▁surface	-13971
▁zunubin	-13972
▁Tanzania	-13973
▁gbanwere	-13974
▁kungiyar	-13975
▁thankful	-13976
Photograph	-13977
▁Yerobowam	-13978
▁carefully	-13979
▁interpret	-13980
▁ọchịchịrị	-13981
▁messengers	-13982
▁previously	-13983
▁trenbolone	-13984
▁whatsoever	-13985
▁agụmakwụkwọ	-13986
▁explanation	-13987
▁Christianity	-13988
▁specifically	-13989
PP	-13990
SI	-13991
fị	-13992
.""	-13993
.37	-13994
100	-13995
4),	-13996
Che	-13997
Dem	-13998
Imo	-13999
Sec	-14000
bùn	-14001
ezo	-14002
fín	-14003
gog	-14004
kta	-14005
ndị	-14006
ono	-14007
súé	-14008
ãni	-14009
▁Eg	-14010
abua	-14011
acci	-14012
akis	-14013
alam	-14014
athi	-14015
bert	-14016
bury	-14017
cere	-14018
date	-14019
ella	-14020
enov	-14021
jila	-14022
list	-14023
ophy	-14024
prof	-14025
ront	-14026
ryol	-14027
uchi	-14028
ules	-14029
ulun	-14030
umph	-14031
ò̩lù	-14032
ńdíà	-14033
▁Ahụ	-14034
▁Bam	-14035
▁Inf	-14036
▁Owó	-14037
▁Put	-14038
▁Sau	-14039
▁aza	-14040
▁dom	-14041
▁epo	-14042
▁gwi	-14043
▁gùn	-14044
▁hyp	-14045
▁ite	-14046
▁ló̩	-14047
▁lẹ̀	-14048
▁ngụ	-14049
▁nko	-14050
▁obj	-14051
▁ogo	-14052
▁vit	-14053
0,000	-14054
akila	-14055
amped	-14056
anata	-14057
aning	-14058
ardon	-14059
emeri	-14060
ishes	-14061
oshin	-14062
súélà	-14063
▁Data	-14064
▁Fẹnẹ	-14065
▁Hear	-14066
▁Idin	-14067
▁Luke	-14068
▁Nina	-14069
▁Tony	-14070
▁Well	-14071
▁achụ	-14072
▁busa	-14073
▁gana	-14074
▁gēme	-14075
▁hudu	-14076
▁nerv	-14077
▁nnye	-14078
▁ragu	-14079
▁rinj	-14080
▁taya	-14081
▁ub͕u	-14082
▁virt	-14083
▁ǹkan	-14084
▁ẹ̀yẹ	-14085
▁ịchọ	-14086
ecture	-14087
elfare	-14088
fíríkà	-14089
haylov	-14090
ikiped	-14091
manent	-14092
ouston	-14093
▁2015.	-14094
▁Abish	-14095
▁Ahmad	-14096
▁Alexa	-14097
▁Costa	-14098
▁Mahal	-14099
▁Nwoke	-14100
▁Obodo	-14101
▁Oryol	-14102
▁Sotho	-14103
▁Tibet	-14104
▁adopt	-14105
▁banye	-14106
▁bashe	-14107
▁burge	-14108
▁cells	-14109
▁cheta	-14110
▁dread	-14111
▁dáàbò	-14112
▁files	-14113
▁gradu	-14114
▁haura	-14115
▁lines	-14116
▁lissa	-14117
▁lókun	-14118
▁mmefu	-14119
▁ntuli	-14120
▁olórí	-14121
▁oògùn	-14122
▁sakon	-14123
▁sarra	-14124
▁strik	-14125
▁wings	-14126
▁ẹ̀yin	-14127
kammụta	-14128
▁Achọrọ	-14129
▁Europa	-14130
▁Shekem	-14131
▁Tsunts	-14132
▁akwụkw	-14133
▁butter	-14134
▁depend	-14135
▁income	-14136
▁invite	-14137
▁kursiy	-14138
▁legisl	-14139
▁papers	-14140
▁poured	-14141
▁pulled	-14142
▁racist	-14143
▁sample	-14144
▁saurin	-14145
▁stolen	-14146
▁sunana	-14147
▁ticket	-14148
▁ụmụnna	-14149
Speaking	-14150
mination	-14151
▁Affairs	-14152
▁annabci	-14153
▁corrupt	-14154
▁deserve	-14155
▁elderly	-14156
▁involve	-14157
▁karnuka	-14158
▁managed	-14159
▁mechara	-14160
▁moments	-14161
▁ngwugwu	-14162
▁silence	-14163
▁sonyere	-14164
▁trusted	-14165
▁ƙafafun	-14166
Everybody	-14167
Meanwhile	-14168
niníṣẹ̀ẹ́	-14169
▁Services	-14170
▁champion	-14171
▁contrary	-14172
▁entering	-14173
▁impacted	-14174
▁intellig	-14175
▁merciful	-14176
▁sauraron	-14177
▁sessions	-14178
▁sickness	-14179
▁troubled	-14180
▁Fẹnẹsúélà	-14181
▁Mikhaylov	-14182
▁automatic	-14183
▁infection	-14184
▁interests	-14185
▁kasuwanci	-14186
▁nlereanya	-14187
▁professor	-14188
▁providers	-14189
▁wherewith	-14190
▁whosoever	-14191
▁businesses	-14192
▁smartphone	-14193
▁tattaunawa	-14194
▁participate	-14195
!'	-14196
BS	-14197
Co	-14198
ía	-14199
oya	-14200
yọ́	-14201
árá	-14202
ùfè	-14203
▁Pá	-14204
▁Yu	-14205
▁Ìl	-14206
▁ìy	-14207
▁ṣẹ	-14208
Life	-14209
apti	-14210
arap	-14211
cean	-14212
ewis	-14213
idad	-14214
imai	-14215
kong	-14216
this	-14217
utsi	-14218
▁CBN	-14219
▁Las	-14220
▁Nic	-14221
▁agw	-14222
▁ati	-14223
▁bij	-14224
▁enw	-14225
▁gbò	-14226
▁mpe	-14227
▁owu	-14228
▁pin	-14229
▁pọn	-14230
▁tub	-14231
▁àná	-14232
▁ƙid	-14233
akọrọ	-14234
amata	-14235
andan	-14236
asụsụ	-14237
comes	-14238
cular	-14239
icial	-14240
ivity	-14241
lagbà	-14242
unior	-14243
usted	-14244
▁Esau	-14245
▁Even	-14246
▁Kogi	-14247
▁Kódà	-14248
▁Mall	-14249
▁Matt	-14250
▁Prot	-14251
▁auri	-14252
▁bayy	-14253
▁cave	-14254
▁fant	-14255
▁guje	-14256
▁jawa	-14257
▁kiri	-14258
▁lion	-14259
▁mika	-14260
▁mita	-14261
▁moon	-14262
▁pàdé	-14263
▁toro	-14264
▁yabi	-14265
▁ìwọ̀	-14266
▁ƙofa	-14267
▁ṣeré	-14268
ekweta	-14269
inehas	-14270
pụtala	-14271
▁2019:	-14272
▁Bapti	-14273
▁Every	-14274
▁Mahai	-14275
▁Mista	-14276
▁Yahud	-14277
▁auren	-14278
▁banda	-14279
▁biyan	-14280
▁kallo	-14281
▁karen	-14282
▁karɓa	-14283
▁kauna	-14284
▁mmebi	-14285
▁radio	-14286
▁spect	-14287
▁ubang	-14288
▁valid	-14289
▁wutar	-14290
▁zarar	-14291
▁ìlérí	-14292
▁Ọbụna	-14293
ception	-14294
entific	-14295
iration	-14296
owọ́pọ̀	-14297
▁Access	-14298
▁Andrew	-14299
▁Assist	-14300
▁butere	-14301
▁buƙata	-14302
▁expand	-14303
▁garuru	-14304
▁gentle	-14305
▁kwarin	-14306
▁planet	-14307
▁rulers	-14308
▁strike	-14309
▁sọ́dọ̀	-14310
▁washed	-14311
▁àyẹ̀wò	-14312
dọ́gbọ̀n	-14313
▁Amaechi	-14314
▁Ayyukan	-14315
▁Faransa	-14316
▁afflict	-14317
▁aikinsa	-14318
▁complic	-14319
▁falling	-14320
▁leopard	-14321
▁passing	-14322
▁pitched	-14323
▁protein	-14324
▁suburbs	-14325
▁upgrade	-14326
ibilities	-14327
▁Nasarawa	-14328
▁breaking	-14329
▁compound	-14330
▁describe	-14331
▁gracious	-14332
▁identify	-14333
▁kasashen	-14334
▁password	-14335
▁province	-14336
▁spending	-14337
▁strategy	-14338
▁tattalin	-14339
▁whenever	-14340
▁ìgbéyàwó	-14341
▁Generator	-14342
▁Professor	-14343
▁Resources	-14344
▁abandoned	-14345
▁computers	-14346
▁employees	-14347
▁indicator	-14348
▁kwupụtara	-14349
▁remaining	-14350
fortunately	-14351
▁attendance	-14352
▁literature	-14353
▁volunteers	-14354
▁electricity	-14355
Bí	-14356
FM	-14357
NC	-14358
Ob	-14359
TR	-14360
oz	-14361
én	-14362
ọk	-14363
▁”	-14364
.36	-14365
Isa	-14366
Yah	-14367
bul	-14368
ett	-14369
fit	-14370
lè̩	-14371
oké	-14372
yad	-14373
éré	-14374
úni	-14375
ọla	-14376
▁66	-14377
▁AC	-14378
▁DR	-14379
▁LA	-14380
▁RE	-14381
▁dù	-14382
▁eg	-14383
""."	-14384
Acts	-14385
Bari	-14386
Igbo	-14387
Part	-14388
Thus	-14389
arks	-14390
atra	-14391
ikwu	-14392
kwun	-14393
kópa	-14394
lear	-14395
mata	-14396
mọ́n	-14397
ntil	-14398
oted	-14399
rick	-14400
takò	-14401
tial	-14402
ugar	-14403
ánil	-14404
ọkàn	-14405
▁Boy	-14406
▁Hor	-14407
▁Lim	-14408
▁Los	-14409
▁Láé	-14410
▁Ref	-14411
▁Sok	-14412
▁Spy	-14413
▁Tas	-14414
▁ham	-14415
▁kud	-14416
▁kuɓ	-14417
▁luc	-14418
▁nzụ	-14419
▁ogó	-14420
▁shu	-14421
▁tip	-14422
▁àfi	-14423
▁àmú	-14424
▁íme	-14425
▁òṣù	-14426
▁ẹrù	-14427
▁ọhụ	-14428
Alice	-14429
aliah	-14430
angel	-14431
assed	-14432
dógún	-14433
ivery	-14434
jukwu	-14435
naụba	-14436
ribes	-14437
sopọ̀	-14438
yinya	-14439
▁Abịa	-14440
▁CAPT	-14441
▁Capt	-14442
▁Many	-14443
▁Mats	-14444
▁Moto	-14445
▁Okon	-14446
▁Prop	-14447
▁Shad	-14448
▁Town	-14449
▁Zion	-14450
▁boys	-14451
▁cash	-14452
▁choc	-14453
▁egwú	-14454
▁embr	-14455
▁fass	-14456
▁gayy	-14457
▁gābu	-14458
▁huta	-14459
▁juyo	-14460
▁kẹfà	-14461
▁kọrọ	-14462
▁láyè	-14463
▁nata	-14464
▁nuts	-14465
▁rela	-14466
▁scar	-14467
▁symp	-14468
▁wayo	-14469
▁wilt	-14470
ishing	-14471
onents	-14472
tagram	-14473
usions	-14474
ọ́ọ̀ṣì	-14475
▁Ephes	-14476
▁Haiti	-14477
▁Jebus	-14478
▁Laban	-14479
▁Njikọ	-14480
▁Prime	-14481
▁Sabon	-14482
▁ahapụ	-14483
▁amsar	-14484
▁chọta	-14485
▁crash	-14486
▁dashi	-14487
▁dilig	-14488
▁dáhùn	-14489
▁frequ	-14490
▁funds	-14491
▁funny	-14492
▁miser	-14493
▁mmezi	-14494
▁nduzi	-14495
▁rawar	-14496
▁ridic	-14497
▁shape	-14498
▁style	-14499
▁walls	-14500
▁wanka	-14501
▁zafin	-14502
▁ìsúná	-14503
▁ìwọ̀n	-14504
▁Ọnọdụ	-14505
ination	-14506
▁Amazon	-14507
▁Gerber	-14508
▁Lombok	-14509
▁Romawa	-14510
▁Savior	-14511
▁banned	-14512
▁caring	-14513
▁compre	-14514
▁drinks	-14515
▁dịgasị	-14516
▁exists	-14517
▁fitowa	-14518
▁flying	-14519
▁lovely	-14520
▁matala	-14521
▁mostly	-14522
▁méjìlá	-14523
▁nchebe	-14524
▁sinner	-14525
▁tasiri	-14526
▁thrown	-14527
▁tsalle	-14528
▁tuddai	-14529
▁zargin	-14530
▁ìdáhùn	-14531
Location	-14532
Multiple	-14533
National	-14534
essional	-14535
kọ̀ọ̀kan	-14536
ottenham	-14537
tonguien	-14538
▁Balogun	-14539
▁Banyere	-14540
▁CAPTCHA	-14541
▁Captcha	-14542
▁Shaiɗan	-14543
▁closely	-14544
▁elected	-14545
▁halicci	-14546
▁hannuna	-14547
▁illness	-14548
▁nazarin	-14549
▁operate	-14550
▁pounded	-14551
▁sincere	-14552
▁studied	-14553
▁testify	-14554
▁trading	-14555
▁ìfọ̀rọ̀	-14556
▁ọgbụgba	-14557
▁Alkawali	-14558
▁Gọọmenti	-14559
▁desolate	-14560
▁diabetes	-14561
▁dukkanin	-14562
▁kyawawan	-14563
▁Bukitting	-14564
▁Electoral	-14565
▁blessings	-14566
▁boyfriend	-14567
▁concluded	-14568
▁essential	-14569
▁forgotten	-14570
▁justified	-14571
▁perfectly	-14572
▁searching	-14573
▁secretary	-14574
▁strangers	-14575
▁ṣagbátẹrù	-14576
▁scientists	-14577
▁shugabanni	-14578
▁worshipped	-14579
▁Electronics	-14580
▁application	-14581
▁differences	-14582
▁distributed	-14583
▁worshippers	-14584
no	-14585
.43	-14586
:30	-14587
Ask	-14588
Bet	-14589
Eng	-14590
Eva	-14591
Mad	-14592
Men	-14593
ahu	-14594
coh	-14595
dai	-14596
egw	-14597
exp	-14598
fọ̀	-14599
gẹ̀	-14600
idd	-14601
kah	-14602
kob	-14603
lem	-14604
pán	-14605
▁CD	-14606
▁Um	-14607
▁bè	-14608
▁rà	-14609
▁ré	-14610
Amma	-14611
Aust	-14612
Cons	-14613
Gịnị	-14614
INEC	-14615
Onye	-14616
Stop	-14617
Tube	-14618
alai	-14619
emer	-14620
erce	-14621
erts	-14622
lórí	-14623
níjà	-14624
ompl	-14625
play	-14626
rate	-14627
usts	-14628
▁21,	-14629
▁Has	-14630
▁Jọn	-14631
▁Nde	-14632
▁Oka	-14633
▁Olu	-14634
▁Rah	-14635
▁Rev	-14636
▁Ros	-14637
▁Tit	-14638
▁Vin	-14639
▁fet	-14640
▁fle	-14641
▁hay	-14642
▁ipá	-14643
▁kùn	-14644
▁max	-14645
▁nrọ	-14646
▁sne	-14647
▁ung	-14648
▁Ọmụ	-14649
About	-14650
Being	-14651
Under	-14652
alibi	-14653
ikway	-14654
ilite	-14655
kwute	-14656
rìíra	-14657
ursue	-14658
yoyin	-14659
▁Hapụ	-14660
▁Igwe	-14661
▁Juan	-14662
▁Zamu	-14663
▁agwọ	-14664
▁anwu	-14665
▁apps	-14666
▁araa	-14667
▁dawa	-14668
▁debt	-14669
▁firg	-14670
▁fāɗa	-14671
▁hadu	-14672
▁kori	-14673
▁nuru	-14674
▁ogwu	-14675
▁onto	-14676
▁roƙe	-14677
▁saya	-14678
▁trav	-14679
▁wèrè	-14680
▁ìkọ́	-14681
▁ɗana	-14682
Carmen	-14683
abijin	-14684
ananan	-14685
enesis	-14686
okenye	-14687
unansu	-14688
ènìyàn	-14689
▁Award	-14690
▁Found	-14691
▁Haman	-14692
▁Jones	-14693
▁Libya	-14694
▁Maris	-14695
▁Miche	-14696
▁Nwere	-14697
▁Which	-14698
▁amasị	-14699
▁babba	-14700
▁banks	-14701
▁batrị	-14702
▁biara	-14703
▁hopes	-14704
▁ibada	-14705
▁karɓe	-14706
▁launi	-14707
▁lásán	-14708
▁marks	-14709
▁miles	-14710
▁moral	-14711
▁prost	-14712
▁rapid	-14713
▁stole	-14714
▁talla	-14715
▁wayar	-14716
▁yawon	-14717
▁ìrókò	-14718
achịkwa	-14719
echiche	-14720
hụnanya	-14721
itional	-14722
▁Alaeze	-14723
▁Global	-14724
▁Others	-14725
▁Report	-14726
▁Skills	-14727
▁crimes	-14728
▁cututt	-14729
▁dalili	-14730
▁debate	-14731
▁feared	-14732
▁fẹ́ràn	-14733
▁horses	-14734
▁komawa	-14735
▁kwance	-14736
▁mataki	-14737
▁mental	-14738
▁pursue	-14739
▁racial	-14740
▁server	-14741
▁stream	-14742
▁titles	-14743
▁tsahon	-14744
▁tushen	-14745
Governor	-14746
▁Agbègbè	-14747
▁Sameria	-14748
▁annabin	-14749
▁bayyane	-14750
▁biakute	-14751
▁causing	-14752
▁cutting	-14753
▁decades	-14754
▁dịkarịa	-14755
▁enhance	-14756
▁harvest	-14757
▁igbochi	-14758
▁influen	-14759
▁mallaki	-14760
▁mission	-14761
▁mistake	-14762
▁okpukpe	-14763
▁sarrafa	-14764
▁shortly	-14765
▁speaker	-14766
▁sunayen	-14767
abilities	-14768
▁Littafin	-14769
▁allowing	-14770
▁appealed	-14771
▁captains	-14772
▁extended	-14773
▁festival	-14774
▁interact	-14775
▁kwaikway	-14776
▁manufact	-14777
▁nkwupụta	-14778
▁occurred	-14779
▁overwhel	-14780
▁regional	-14781
▁rejected	-14782
▁requires	-14783
▁tsananta	-14784
▁ìgbáradì	-14785
▁Financial	-14786
▁akụrụngwa	-14787
▁gathering	-14788
▁intention	-14789
▁operation	-14790
▁positions	-14791
▁tilastawa	-14792
▁zuciyarsa	-14793
▁girlfriend	-14794
▁healthcare	-14795
▁indigenous	-14796
▁kakanninku	-14797
▁association	-14798
▁fundamental	-14799
▁distribution	-14800
-4	-14801
39	-14802
GA	-14803
PN	-14804
SV	-14805
Za	-14806
ev	-14807
pm	-14808
ƙu	-14809
1-8	-14810
GAD	-14811
Har	-14812
anc	-14813
bal	-14814
bàá	-14815
dàá	-14816
luk	-14817
ndu	-14818
nom	-14819
oho	-14820
sha	-14821
sun	-14822
ńlá	-14823
▁Li	-14824
▁Sọ	-14825
▁fè	-14826
▁mì	-14827
▁sụ	-14828
▁ug	-14829
-524	-14830
Anna	-14831
eral	-14832
idem	-14833
imma	-14834
iyon	-14835
izza	-14836
kota	-14837
lese	-14838
rows	-14839
rìṣà	-14840
tivo	-14841
ukin	-14842
Ìfẹ́	-14843
íìṣì	-14844
ọọpụ	-14845
▁17,	-14846
▁Eri	-14847
▁Ita	-14848
▁Kok	-14849
▁Osc	-14850
▁Pur	-14851
▁Yor	-14852
▁Yẹ̀	-14853
▁asc	-14854
▁cra	-14855
▁jim	-14856
▁kut	-14857
▁nnù	-14858
▁ájá	-14859
▁òye	-14860
▁Ọka	-14861
▁ọtí	-14862
1-845	-14863
Imran	-14864
Total	-14865
aired	-14866
amily	-14867
anwee	-14868
court	-14869
kawar	-14870
kóhun	-14871
opyan	-14872
owash	-14873
rants	-14874
rency	-14875
watar	-14876
zugbo	-14877
▁Budd	-14878
▁ECHR	-14879
▁Esta	-14880
▁Jane	-14881
▁Mand	-14882
▁Penh	-14883
▁agwụ	-14884
▁bold	-14885
▁bury	-14886
▁doth	-14887
▁gark	-14888
▁gādi	-14889
▁horm	-14890
▁liya	-14891
▁nest	-14892
▁nisa	-14893
▁quiz	-14894
▁rear	-14895
▁sojú	-14896
▁ọkwọ	-14897
▁ọ̀gá	-14898
-524-3	-14899
ambara	-14900
atsina	-14901
father	-14902
kpuchi	-14903
ìwòsàn	-14904
▁2:30.	-14905
▁Alush	-14906
▁Crazy	-14907
▁Fails	-14908
▁Jekob	-14909
▁Kibra	-14910
▁Phnom	-14911
▁Pixel	-14912
▁Sípán	-14913
▁Tokyo	-14914
▁alfah	-14915
▁dying	-14916
▁exalt	-14917
▁flags	-14918
▁giant	-14919
▁hated	-14920
▁heark	-14921
▁jìnnà	-14922
▁liver	-14923
▁láàyè	-14924
▁minti	-14925
▁mọ́lé	-14926
▁notes	-14927
▁nurse	-14928
▁oblig	-14929
▁rains	-14930
▁swear	-14931
▁tarar	-14932
▁taxes	-14933
▁tụlee	-14934
▁wakil	-14935
▁ìtùnú	-14936
▁ẹ̀rín	-14937
jokovic	-14938
ọ̀rọ̀dá	-14939
▁Bukola	-14940
▁Enugwu	-14941
▁Matiyu	-14942
▁Sokoto	-14943
▁Telugu	-14944
▁Tennis	-14945
▁adults	-14946
▁annual	-14947
▁copies	-14948
▁deaths	-14949
▁exceed	-14950
▁fasaha	-14951
▁formed	-14952
▁fruits	-14953
▁lights	-14954
▁seller	-14955
▁starts	-14956
▁submit	-14957
▁tamkar	-14958
▁tested	-14959
▁toilet	-14960
▁worker	-14961
▁àtijọ́	-14962
▁òkèèrè	-14963
ikipedia	-14964
iracetam	-14965
legation	-14966
ventions	-14967
▁Akopyan	-14968
▁Andrzej	-14969
▁Kenneth	-14970
▁Mahadum	-14971
▁Shechem	-14972
▁Waɗanda	-14973
▁achọghị	-14974
▁akaụntụ	-14975
▁beliefs	-14976
▁central	-14977
▁cunning	-14978
▁fellows	-14979
▁gicciye	-14980
▁kurkuku	-14981
▁recover	-14982
▁replied	-14983
▁smoking	-14984
▁strateg	-14985
▁welfare	-14986
▁ƙasashe	-14987
▁ịzọpụta	-14988
ayélujára	-14989
▁Anderson	-14990
▁Economic	-14991
▁approved	-14992
▁complain	-14993
▁constant	-14994
▁entirely	-14995
▁entitled	-14996
▁horrible	-14997
▁manzanni	-14998
▁murderer	-14999
▁nnọchite	-15000
▁okorobịa	-15001
▁oníròyìn	-15002
▁programs	-15003
▁suitable	-15004
▁tẹ́lẹ̀rí	-15005
▁vehicles	-15006
▁ẹlòmíràn	-15007
rọ̀ọ̀rọ̀dá	-15008
▁Alexander	-15009
▁Sípáníìṣì	-15010
▁captivity	-15011
▁complaint	-15012
▁connected	-15013
▁continent	-15014
▁delicious	-15015
▁hearkened	-15016
▁olùṣàmúlò	-15017
▁provision	-15018
▁rayuwarsa	-15019
▁regularly	-15020
1-845-524-3	-15021
▁Technology	-15022
▁introduced	-15023
▁operations	-15024
▁repentance	-15025
▁agbawèrèmẹ́sìn	-15026
):	-15027
:8	-15028
BI	-15029
Kí	-15030
kg	-15031
Ẹ̀	-15032
ụl	-15033
3),	-15034
azz	-15035
eda	-15036
niy	-15037
odù	-15038
owo	-15039
thy	-15040
èlì	-15041
▁OS	-15042
▁dẹ	-15043
achụ	-15044
gian	-15045
quar	-15046
redi	-15047
usar	-15048
veni	-15049
ẹ̀yà	-15050
▁Ire	-15051
▁Kab	-15052
▁Log	-15053
▁Omo	-15054
▁Uri	-15055
▁eso	-15056
▁ezo	-15057
▁huj	-15058
▁ibà	-15059
▁lem	-15060
▁olè	-15061
▁oyè	-15062
▁pịa	-15063
▁swa	-15064
▁unf	-15065
▁urg	-15066
▁yea	-15067
▁ńṣe	-15068
▁ƙau	-15069
▁ịgụ	-15070
Sadly	-15071
Think	-15072
aniah	-15073
apchi	-15074
erate	-15075
erior	-15076
estic	-15077
iance	-15078
isiri	-15079
kéyìí	-15080
wọ́tó	-15081
▁Conf	-15082
▁Eron	-15083
▁Fili	-15084
▁Kish	-15085
▁Long	-15086
▁Naft	-15087
▁Nass	-15088
▁Noah	-15089
▁Osun	-15090
▁Scot	-15091
▁aghọ	-15092
▁blew	-15093
▁fort	-15094
▁gwar	-15095
▁jere	-15096
▁kits	-15097
▁libr	-15098
▁naka	-15099
▁nasu	-15100
▁nwet	-15101
▁ogbu	-15102
▁peak	-15103
▁prec	-15104
▁roƙi	-15105
▁sace	-15106
▁spin	-15107
▁síta	-15108
▁tèmi	-15109
▁yafe	-15110
▁ìsìn	-15111
▁ṣòro	-15112
▁ọ̀tá	-15113
ekwusa	-15114
ukansa	-15115
▁Ajụjụ	-15116
▁Amaju	-15117
▁Susan	-15118
▁argue	-15119
▁emebi	-15120
▁emepe	-15121
▁hurry	-15122
▁jirgi	-15123
▁kalub	-15124
▁kishi	-15125
▁kwamf	-15126
▁kwara	-15127
▁mbido	-15128
▁mishi	-15129
▁nketa	-15130
▁papọ̀	-15131
▁slept	-15132
▁sùúrù	-15133
▁tents	-15134
▁truck	-15135
▁òfùfè	-15136
istocin	-15137
tìlẹyìn	-15138
▁Dukkan	-15139
▁Hitler	-15140
▁Ojukwu	-15141
▁Square	-15142
▁Tabbas	-15143
▁Valley	-15144
▁agents	-15145
▁devast	-15146
▁dialog	-15147
▁fẹ̀yìn	-15148
▁gashin	-15149
▁gbógun	-15150
▁jikọrọ	-15151
▁kullun	-15152
▁labour	-15153
▁lyrics	-15154
▁meworo	-15155
▁olùgbé	-15156
▁paying	-15157
▁remote	-15158
▁salary	-15159
▁sandan	-15160
▁wahayi	-15161
▁writer	-15162
▁àìmọye	-15163
▁ìṣègùn	-15164
àìrídìmú	-15165
▁Manassa	-15166
▁YouTube	-15167
▁accompl	-15168
▁airport	-15169
▁aljannu	-15170
▁alleged	-15171
▁amamihe	-15172
▁bonuses	-15173
▁chamber	-15174
▁depends	-15175
▁desired	-15176
▁failure	-15177
▁flowers	-15178
▁healing	-15179
▁inaugur	-15180
▁malamin	-15181
▁nervous	-15182
▁retired	-15183
▁tragedy	-15184
▁ƙofofin	-15185
Catherine	-15186
▁akụnaụba	-15187
▁amincewa	-15188
▁androgen	-15189
▁concerns	-15190
▁estrogen	-15191
▁infected	-15192
▁mistakes	-15193
▁numfashi	-15194
▁observed	-15195
▁politics	-15196
▁proclaim	-15197
▁redeemed	-15198
▁shopping	-15199
▁Blackjack	-15200
▁glorified	-15201
▁highlight	-15202
▁preparing	-15203
▁reference	-15204
▁Yehoshafat	-15205
▁accomplish	-15206
▁kayayyakin	-15207
▁persecuted	-15208
▁reputation	-15209
▁celebration	-15210
▁Nebuchadnezzar	-15211
▁infrastructure	-15212
▁representatives	-15213
%)	-15214
55	-15215
IR	-15216
bn	-15217
mq	-15218
àà	-15219
ọt	-15220
▁ǹ	-15221
Col	-15222
Ear	-15223
Sur	-15224
Was	-15225
aco	-15226
dàn	-15227
gọ̀	-15228
irm	-15229
jab	-15230
jik	-15231
rim	-15232
rob	-15233
you	-15234
▁AL	-15235
▁aj	-15236
▁nụ	-15237
-19,	-15238
Mary	-15239
None	-15240
ORKS	-15241
akpụ	-15242
apic	-15243
ayye	-15244
bean	-15245
bing	-15246
empe	-15247
gbèé	-15248
ogún	-15249
oles	-15250
ords	-15251
orto	-15252
sitì	-15253
warị	-15254
àwọn	-15255
ọgwụ	-15256
ụgbọ	-15257
▁194	-15258
▁Ari	-15259
▁Bud	-15260
▁Eck	-15261
▁Gat	-15262
▁Iye	-15263
▁Jar	-15264
▁Saf	-15265
▁bụ́	-15266
▁ilu	-15267
▁kum	-15268
▁orú	-15269
▁spr	-15270
▁tro	-15271
▁wọ́	-15272
▁ìkọ	-15273
▁òní	-15274
anene	-15275
ebute	-15276
esịrị	-15277
idgin	-15278
ríyìn	-15279
uputa	-15280
wansa	-15281
▁Ezen	-15282
▁Mara	-15283
▁Mina	-15284
▁Pram	-15285
▁Shem	-15286
▁Surg	-15287
▁Yobe	-15288
▁awan	-15289
▁bene	-15290
▁core	-15291
▁dire	-15292
▁hoto	-15293
▁kụrụ	-15294
▁maid	-15295
▁naɗa	-15296
▁nurs	-15297
▁okùn	-15298
▁pour	-15299
▁sadu	-15300
▁soil	-15301
▁tail	-15302
▁yaki	-15303
▁yawo	-15304
▁ọhụụ	-15305
ambodo	-15306
ancing	-15307
asọmpi	-15308
ctuary	-15309
ekpere	-15310
esters	-15311
orough	-15312
uality	-15313
▁2013.	-15314
▁Grace	-15315
▁Judge	-15316
▁Media	-15317
▁Tinye	-15318
▁Yadda	-15319
▁akpan	-15320
▁array	-15321
▁audio	-15322
▁begat	-15323
▁blame	-15324
▁block	-15325
▁dealt	-15326
▁drawn	-15327
▁fòfin	-15328
▁imebi	-15329
▁mpako	-15330
▁ndidi	-15331
▁ngọzi	-15332
▁rough	-15333
▁shuga	-15334
▁snail	-15335
▁stock	-15336
▁views	-15337
▁zurfi	-15338
▁ɗaure	-15339
▁Ọ̀yọ́	-15340
lection	-15341
ụlọikpe	-15342
▁Appeal	-15343
▁Eckert	-15344
▁Jersey	-15345
▁Jirgin	-15346
▁Jámánì	-15347
▁casual	-15348
▁covers	-15349
▁gafere	-15350
▁ilimin	-15351
▁imagin	-15352
▁kariya	-15353
▁ladies	-15354
▁larger	-15355
▁láìpẹ́	-15356
▁nearby	-15357
▁nítòsí	-15358
▁prepar	-15359
▁singer	-15360
▁string	-15361
▁tib͕ue	-15362
▁tragic	-15363
▁yardar	-15364
▁ọdachi	-15365
atụkwasị	-15366
owópamọ́	-15367
ulations	-15368
▁Company	-15369
▁Obìnrin	-15370
▁alhakin	-15371
▁balance	-15372
▁collaps	-15373
▁commons	-15374
▁consume	-15375
▁courses	-15376
▁eluigwe	-15377
▁gbẹ́kẹ̀	-15378
▁heavily	-15379
▁hurting	-15380
▁jiragen	-15381
▁karamin	-15382
▁kwupụta	-15383
▁matsayi	-15384
▁mijinta	-15385
▁organis	-15386
▁remnant	-15387
▁teaches	-15388
▁unbelie	-15389
▁uniform	-15390
▁visible	-15391
▁wherein	-15392
▁Gambling	-15393
▁Trinidad	-15394
▁articles	-15395
▁evacuate	-15396
▁everyday	-15397
▁internal	-15398
▁lómìnira	-15399
▁mepụtara	-15400
▁mọ́kànlá	-15401
▁sarakuna	-15402
▁sleeping	-15403
▁tsibirin	-15404
▁watakila	-15405
▁èyíkéyìí	-15406
▁ịchọpụta	-15407
ectiveness	-15408
▁chocolate	-15409
▁collected	-15410
▁involving	-15411
▁mgbaghara	-15412
▁nígbàgbọ́	-15413
▁obedience	-15414
▁qualified	-15415
▁zuciyarka	-15416
▁Foundation	-15417
▁developing	-15418
▁Bukittinggi	-15419
▁politicians	-15420
▁smartphones	-15421
▁Professional	-15422
1-845-524-3000	-15423
?4	-15424
cu	-15425
kh	-15426
mó	-15427
ns	-15428
pì	-15429
.—1	-15430
bel	-15431
dam	-15432
oló	-15433
pli	-15434
pos	-15435
uls	-15436
▁4:	-15437
▁52	-15438
▁Nt	-15439
▁OF	-15440
▁kụ	-15441
▁mù	-15442
Mana	-15443
Next	-15444
Spyo	-15445
aice	-15446
amur	-15447
atai	-15448
chol	-15449
icin	-15450
ilit	-15451
iram	-15452
irar	-15453
rait	-15454
rene	-15455
rine	-15456
unsu	-15457
ọkwa	-15458
▁600	-15459
▁Aba	-15460
▁Bat	-15461
▁Bre	-15462
▁Dur	-15463
▁Inc	-15464
▁Kal	-15465
▁Lik	-15466
▁Mam	-15467
▁Oṣù	-15468
▁Ped	-15469
▁Sta	-15470
▁Str	-15471
▁Uru	-15472
▁ajà	-15473
▁alt	-15474
▁ata	-15475
▁fín	-15476
▁gún	-15477
▁hab	-15478
▁hip	-15479
▁kán	-15480
▁kíá	-15481
▁mbà	-15482
▁onu	-15483
▁phr	-15484
▁rar	-15485
▁sih	-15486
▁taf	-15487
▁òsì	-15488
WORKS	-15489
alwar	-15490
ashed	-15491
awara	-15492
ciple	-15493
imara	-15494
mọ̀wé	-15495
names	-15496
okọta	-15497
pport	-15498
tives	-15499
ubere	-15500
utral	-15501
uworo	-15502
vited	-15503
yansu	-15504
▁Abun	-15505
▁Boca	-15506
▁Cell	-15507
▁Dika	-15508
▁Gírí	-15509
▁Hutu	-15510
▁Ibom	-15511
▁Jehu	-15512
▁Maɗa	-15513
▁Sojo	-15514
▁Toba	-15515
▁chem	-15516
▁forn	-15517
▁iber	-15518
▁kofi	-15519
▁lock	-15520
▁maci	-15521
▁masi	-15522
▁nēje	-15523
▁rami	-15524
▁rang	-15525
▁raye	-15526
▁shag	-15527
▁tren	-15528
▁valu	-15529
▁yuwu	-15530
▁Ìṣẹ́	-15531
50,000	-15532
Having	-15533
ercial	-15534
ittees	-15535
ournal	-15536
▁2013,	-15537
▁Arise	-15538
▁Bello	-15539
▁Force	-15540
▁Judas	-15541
▁Organ	-15542
▁Shall	-15543
▁Trade	-15544
▁Youth	-15545
▁analy	-15546
▁brake	-15547
▁cough	-15548
▁dabam	-15549
▁dàgbà	-15550
▁dọ́là	-15551
▁fires	-15552
▁fúnni	-15553
▁goeth	-15554
▁goyon	-15555
▁idanu	-15556
▁láìsí	-15557
▁skill	-15558
▁smite	-15559
▁tukọ̀	-15560
▁watsi	-15561
attafan	-15562
ilọ́lẹ̀	-15563
issions	-15564
onesian	-15565
ountain	-15566
respond	-15567
ọchịchị	-15568
▁Dating	-15569
▁Deputy	-15570
▁Oziọma	-15571
▁Serena	-15572
▁akwụsị	-15573
▁attrib	-15574
▁bayyan	-15575
▁bazara	-15576
▁dọkịta	-15577
▁earned	-15578
▁elimin	-15579
▁finals	-15580
▁karfin	-15581
▁matata	-15582
▁meters	-15583
▁needle	-15584
▁nwanyi	-15585
▁prover	-15586
▁riches	-15587
▁robber	-15588
▁saints	-15589
▁ƙaunat	-15590
eresting	-15591
jirimara	-15592
quarters	-15593
sowọ́pọ̀	-15594
▁Houston	-15595
▁Islamic	-15596
▁Naftali	-15597
▁Swedish	-15598
▁Systems	-15599
▁alkawar	-15600
▁aṣíkiri	-15601
▁capable	-15602
▁focused	-15603
▁islands	-15604
▁lawyers	-15605
▁ofishin	-15606
▁reminds	-15607
▁sunanka	-15608
▁survive	-15609
▁tsayawa	-15610
▁ƙanƙara	-15611
▁ƙaunace	-15612
intenance	-15613
▁Jehoiada	-15614
▁Nazareth	-15615
▁Pakistan	-15616
▁Zedekiah	-15617
▁admitted	-15618
▁apụtaghị	-15619
▁breastfe	-15620
▁consumed	-15621
▁convince	-15622
▁delivery	-15623
▁detained	-15624
▁murmushi	-15625
▁offended	-15626
▁register	-15627
▁sakamako	-15628
▁trusting	-15629
▁websites	-15630
▁ịsụgharị	-15631
▁ọ̀gbẹ́ni	-15632
▁Icelandic	-15633
▁Leicester	-15634
▁atonement	-15635
▁integrity	-15636
▁operating	-15637
▁sanctuary	-15638
▁zunubansu	-15639
▁associated	-15640
▁candidates	-15641
▁personally	-15642
▁sanctified	-15643
resentatives	-15644
▁acknowledge	-15645
▁prosecution	-15646
▁collaboration	-15647
▁implementation	-15648
,.	-15649
3;	-15650
Gu	-15651
Su	-15652
TH	-15653
gé	-15654
ịm	-15655
.40	-15656
.41	-15657
.45	-15658
Ama	-15659
Duk	-15660
Gen	-15661
agi	-15662
agu	-15663
aṣà	-15664
eed	-15665
etọ	-15666
ezu	-15667
iva	-15668
lix	-15669
oty	-15670
oug	-15671
pur	-15672
sur	-15673
únà	-15674
ụdị	-15675
▁56	-15676
▁57	-15677
▁64	-15678
▁gụ	-15679
▁sé	-15680
▁vs	-15681
▁zọ	-15682
▁ìk	-15683
▁ún	-15684
?---	-15685
Lucy	-15686
ambi	-15687
ccer	-15688
emep	-15689
hend	-15690
hụrụ	-15691
ocin	-15692
they	-15693
ógbè	-15694
úrẹ́	-15695
▁CPE	-15696
▁Cer	-15697
▁Dim	-15698
▁Dra	-15699
▁Ewe	-15700
▁Fab	-15701
▁Fer	-15702
▁Gom	-15703
▁Haw	-15704
▁Hen	-15705
▁Mig	-15706
▁Sep	-15707
▁Thy	-15708
▁fad	-15709
▁gaj	-15710
▁gay	-15711
▁kaf	-15712
▁lin	-15713
▁nar	-15714
▁nwụ	-15715
▁rod	-15716
▁ski	-15717
▁tik	-15718
▁àdá	-15719
▁òpó	-15720
▁ƙin	-15721
5,000	-15722
World	-15723
abled	-15724
aimed	-15725
akọta	-15726
beghi	-15727
ongol	-15728
ouble	-15729
ounce	-15730
yanta	-15731
ẹ́gùn	-15732
▁Agbá	-15733
▁Baku	-15734
▁Bing	-15735
▁Erit	-15736
▁Hill	-15737
▁Kalu	-15738
▁Like	-15739
▁Link	-15740
▁Live	-15741
▁Mata	-15742
▁Move	-15743
▁Only	-15744
▁Tags	-15745
▁brag	-15746
▁buge	-15747
▁kick	-15748
▁lamp	-15749
▁lean	-15750
▁lílo	-15751
▁nigh	-15752
▁soca	-15753
▁sune	-15754
▁tsir	-15755
▁zabi	-15756
▁zane	-15757
Olivia	-15758
Yahaya	-15759
amarin	-15760
chaghị	-15761
coming	-15762
inyere	-15763
liness	-15764
ovskiy	-15765
oyinka	-15766
radára	-15767
utical	-15768
▁Benue	-15769
▁Dauda	-15770
▁Hacks	-15771
▁Malta	-15772
▁Oòrùn	-15773
▁Poker	-15774
▁Sarah	-15775
▁Serge	-15776
▁Tools	-15777
▁Tutsi	-15778
▁Uzoho	-15779
▁asali	-15780
▁canja	-15781
▁chron	-15782
▁evalu	-15783
▁flash	-15784
▁hence	-15785
▁ijide	-15786
▁liber	-15787
▁nkera	-15788
▁nrụrụ	-15789
▁premi	-15790
▁queen	-15791
▁scale	-15792
▁spare	-15793
▁sware	-15794
▁towns	-15795
▁tukun	-15796
▁tọwọ́	-15797
▁union	-15798
▁yabon	-15799
▁Ṣàngó	-15800
Nothing	-15801
intlese	-15802
lọgbọ́n	-15803
ominent	-15804
▁Bishop	-15805
▁Hakika	-15806
▁Isaiah	-15807
▁Lahadi	-15808
▁Magana	-15809
▁Malawi	-15810
▁Senior	-15811
▁Sister	-15812
▁Yoruba	-15813
▁assets	-15814
▁bangon	-15815
▁corpse	-15816
▁dragon	-15817
▁garken	-15818
▁icheta	-15819
▁izinin	-15820
▁magang	-15821
▁mgbali	-15822
▁morrow	-15823
▁olùkọ́	-15824
▁palace	-15825
▁pardon	-15826
▁parent	-15827
▁profit	-15828
▁proven	-15829
▁rebell	-15830
▁scribe	-15831
▁soccer	-15832
▁tashar	-15833
▁tòótọ́	-15834
▁Linjila	-15835
▁Officer	-15836
▁aiwatar	-15837
▁cikinmu	-15838
▁dancing	-15839
▁kwallon	-15840
▁misalin	-15841
▁olóògbé	-15842
[...]
